{"version": "1.0", "truncation": null, "padding": null, "added_tokens": [{"id": 0, "content": "<pad>", "single_word": false, "lstrip": false, "rstrip": false, "normalized": false, "special": true}, {"id": 1, "content": "<unk>", "single_word": false, "lstrip": false, "rstrip": false, "normalized": false, "special": true}, {"id": 2, "content": "<bos>", "single_word": false, "lstrip": false, "rstrip": false, "normalized": false, "special": true}, {"id": 3, "content": "<eos>", "single_word": false, "lstrip": false, "rstrip": false, "normalized": false, "special": true}], "normalizer": null, "pre_tokenizer": {"type": "ByteLevel", "add_prefix_space": false, "trim_offsets": true, "use_regex": true}, "post_processor": null, "decoder": null, "model": {"type": "BPE", "dropout": null, "unk_token": "<unk>", "continuing_subword_prefix": null, "end_of_word_suffix": null, "fuse_unk": false, "byte_fallback": false, "vocab": {"<pad>": 0, "<unk>": 1, "<bos>": 2, "<eos>": 3, "!": 4, "\"": 5, "#": 6, "$": 7, "%": 8, "&": 9, "'": 10, "(": 11, ")": 12, "*": 13, "+": 14, ",": 15, "-": 16, ".": 17, "/": 18, "0": 19, "1": 20, "2": 21, "3": 22, "4": 23, "5": 24, "6": 25, "7": 26, "8": 27, "9": 28, ":": 29, ";": 30, "<": 31, "=": 32, ">": 33, "?": 34, "@": 35, "A": 36, "B": 37, "C": 38, "D": 39, "E": 40, "F": 41, "G": 42, "H": 43, "I": 44, "J": 45, "K": 46, "L": 47, "M": 48, "N": 49, "O": 50, "P": 51, "Q": 52, "R": 53, "S": 54, "T": 55, "U": 56, "V": 57, "W": 58, "X": 59, "Y": 60, "Z": 61, "[": 62, "\\": 63, "]": 64, "^": 65, "_": 66, "`": 67, "a": 68, "b": 69, "c": 70, "d": 71, "e": 72, "f": 73, "g": 74, "h": 75, "i": 76, "j": 77, "k": 78, "l": 79, "m": 80, "n": 81, "o": 82, "p": 83, "q": 84, "r": 85, "s": 86, "t": 87, "u": 88, "v": 89, "w": 90, "x": 91, "y": 92, "z": 93, "|": 94, "}": 95, "~": 96, "¡": 97, "¢": 98, "£": 99, "¤": 100, "¥": 101, "¦": 102, "§": 103, "¨": 104, "©": 105, "ª": 106, "«": 107, "¬": 108, "®": 109, "¯": 110, "°": 111, "±": 112, "²": 113, "³": 114, "´": 115, "µ": 116, "¶": 117, "·": 118, "¸": 119, "¹": 120, "º": 121, "»": 122, "¼": 123, "½": 124, "¾": 125, "¿": 126, "Â": 127, "Ã": 128, "Ä": 129, "Å": 130, "Æ": 131, "Ç": 132, "É": 133, "Ê": 134, "Ë": 135, "Ì": 136, "Î": 137, "Ï": 138, "Ð": 139, "Ñ": 140, "×": 141, "á": 142, "â": 143, "ã": 144, "ä": 145, "å": 146, "æ": 147, "ç": 148, "è": 149, "é": 150, "ê": 151, "ë": 152, "ì": 153, "í": 154, "ï": 155, "ð": 156, "Ċ": 157, "Ġ": 158, "Ģ": 159, "ģ": 160, "Ĥ": 161, "ĥ": 162, "Ħ": 163, "ħ": 164, "Ĩ": 165, "ĩ": 166, "Ī": 167, "ī": 168, "Ĭ": 169, "ĭ": 170, "Į": 171, "į": 172, "İ": 173, "ı": 174, "Ĳ": 175, "ĳ": 176, "Ĵ": 177, "ĵ": 178, "Ķ": 179, "ķ": 180, "ĸ": 181, "Ĺ": 182, "ĺ": 183, "Ļ": 184, "ļ": 185, "Ľ": 186, "ľ": 187, "Ŀ": 188, "ŀ": 189, "Ł": 190, "ł": 191, "Ń": 192, "Ġt": 193, "Ġa": 194, "he": 195, "in": 196, "re": 197, "on": 198, "Ġthe": 199, "er": 200, "Ġs": 201, "Ġw": 202, "at": 203, "Ġo": 204, "nd": 205, "Ġc": 206, "it": 207, "or": 208, "is": 209, "en": 210, "es": 211, "Ġb": 212, "Ġf": 213, "ou": 214, "ing": 215, "Ġp": 216, "ed": 217, "an": 218, "al": 219, "Ġto": 220, "ar": 221, "Ġm": 222, "Ġof": 223, "Ġin": 224, "Ġand": 225, "Ġd": 226, "Ġh": 227, "ic": 228, "as": 229, "le": 230, "Ġth": 231, "om": 232, "ion": 233, "ll": 234, "ent": 235, "Ġl": 236, "Ġre": 237, "Ġn": 238, "st": 239, "ve": 240, "Ġe": 241, "ro": 242, "âĢ": 243, "Ġg": 244, "ĠI": 245, "ĠS": 246, "ly": 247, "Ġbe": 248, "ĠT": 249, "ac": 250, "ut": 251, "id": 252, "ot": 253, "ay": 254, "et": 255, "Ġon": 256, "Ġy": 257, "Ġis": 258, "ĠA": 259, "ĠC": 260, "Ġfor": 261, "ow": 262, "ad": 263, "am": 264, "im": 265, "se": 266, "Ġthat": 267, "ur": 268, "ct": 269, "ig": 270, "ver": 271, "Ġu": 272, "ation": 273, "Ġyou": 274, "il": 275, "ĠM": 276, "ol": 277, "Ġst": 278, "ith": 279, "ir": 280, "Ġit": 281, "ce": 282, "Ġhe": 283, "Ġwith": 284, "ch": 285, "ĠP": 286, "ĠB": 287, "ter": 288, "Ġwe": 289, "Ġwh": 290, "Ġan": 291, "ill": 292, "Ġas": 293, "ke": 294, "ĠW": 295, "âĢĻ": 296, "if": 297, "ld": 298, "ers": 299, "Ġpro": 300, "Ġ1": 301, "Ġha": 302, "ĠD": 303, "Ġat": 304, "ĠH": 305, "her": 306, "oo": 307, "Ġcon": 308, "Ġare": 309, "ĠF": 310, "Ġse": 311, "ate": 312, "ĠR": 313, "ge": 314, "ri": 315, "Ġ2": 316, "Ġ(": 317, "ra": 318, "Ġor": 319, "Ġcom": 320, "ul": 321, "pp": 322, "ore": 323, "Ġwas": 324, "ĠThe": 325, "ment": 326, "est": 327, "Ġde": 328, "ess": 329, "igh": 330, "th": 331, "us": 332, "'s": 333, "rom": 334, "ist": 335, "un": 336, "ew": 337, "ab": 338, "ĠL": 339, "ĠN": 340, "pe": 341, "Ġr": 342, "ity": 343, "ĠG": 344, "Ġex": 345, "ĠE": 346, "em": 347, "qu": 348, "Ġv": 349, "ant": 350, "um": 351, "Ġnot": 352, "res": 353, "Ġthis": 354, "ort": 355, "Ġhave": 356, "Ġby": 357, "ain": 358, "op": 359, "ive": 360, "Ġfrom": 361, "ust": 362, "Ġsh": 363, "art": 364, "os": 365, "nt": 366, "Ġsu": 367, "ĠO": 368, "and": 369, "oc": 370, "el": 371, "all": 372, "ight": 373, "ould": 374, "ies": 375, "Ġal": 376, "ĠJ": 377, "00": 378, "out": 379, "Ġle": 380, "Ġch": 381, "ud": 382, "ard": 383, "our": 384, "ĠâĢ": 385, "ear": 386, "Ġwill": 387, "ost": 388, "iv": 389, "Ġab": 390, "ome": 391, "Ġpl": 392, "red": 393, "te": 394, "ack": 395, "Ġcan": 396, "Ġj": 397, "gh": 398, "Ġall": 399, "The": 400, "od": 401, "ast": 402, "Ġdo": 403, "ally": 404, "rou": 405, "..": 406, "Ġbut": 407, "Ġyour": 408, "Ġhas": 409, "ĠU": 410, "ak": 411, "ag": 412, "Ġwor": 413, "ide": 414, "ine": 415, "Ġk": 416, "pl": 417, "fe": 418, "ure": 419, "Ġwhe": 420, "ap": 421, "Ġsa": 422, "Ġme": 423, "âĢĿ": 424, "ie": 425, "ice": 426, "ther": 427, "Ġhis": 428, "ich": 429, "Ġne": 430, "Ġ\"": 431, "Ġout": 432, "Ġad": 433, "ial": 434, "Ġup": 435, "ry": 436, "ook": 437, "Ġus": 438, "Ġthey": 439, "act": 440, "ame": 441, "ions": 442, "are": 443, "ip": 444, "one": 445, "ind": 446, "ber": 447, "ated": 448, "ake": 449, "age": 450, "Ġte": 451, "og": 452, "pt": 453, "Ġcomp": 454, "ĠK": 455, "Ġso": 456, "Ġmore": 457, "ime": 458, "Ġone": 459, "ans": 460, "ong": 461, "per": 462, "Ġtheir": 463, "very": 464, "ood": 465, "ike": 466, "cc": 467, "for": 468, "01": 469, "able": 470, "Ġcl": 471, "Ġwho": 472, "Ġabout": 473, "ite": 474, "Ġen": 475, "ĠTh": 476, "ous": 477, "ĠIn": 478, "Ġgo": 479, "ĠSt": 480, "ace": 481, "Ġ-": 482, "ue": 483, "Ġmy": 484, "ub": 485, "iz": 486, "Ġim": 487, "Ġcont": 488, "cl": 489, "so": 490, "ary": 491, "ase": 492, "ree": 493, "ff": 494, "ks": 495, "Ġwhich": 496, "au": 497, "ib": 498, "ep": 499, "ia": 500, "ĠY": 501, "ance": 502, "Ġres": 503, "Ġsaid": 504, "ĠâĢľ": 505, "Ġany": 506, "Ġtr": 507, "ire": 508, "ail": 509, "Ġev": 510, "du": 511, "Ġman": 512, "Ġoff": 513, "to": 514, "Ġdis": 515, "ass": 516, "ays": 517, "Ġother": 518, "Ġper": 519, "'t": 520, "Ġag": 521, "Ġapp": 522, "Ġqu": 523, "ach": 524, "Ġyear": 525, "ĠV": 526, "Ġwould": 527, "ond": 528, "ick": 529, "Ġlike": 530, "Ġhad": 531, "ations": 532, "ction": 533, "own": 534, "ult": 535, "ile": 536, "Ġun": 537, "vel": 538, "Ġour": 539, "form": 540, "Ġwere": 541, "Ġ3": 542, "Ġ201": 543, "ign": 544, "av": 545, "Ġsome": 546, "ount": 547, "Ġtime": 548, "Ġnew": 549, "Ġher": 550, "ence": 551, "Ġbeen": 552, "Ġrec": 553, "ord": 554, "Ġsp": 555, "Ġget": 556, "ne": 557, "reat": 558, "Ġpart": 559, "Ġover": 560, "erv": 561, "ĠCh": 562, "Ġthere": 563, "ose": 564, "Ġjust": 565, "Ġif": 566, "Ġalso": 567, "Ġsc": 568, "Ġthem": 569, "Ġwhat": 570, "ough": 571, "ical": 572, "ru": 573, "Ġar": 574, "ings": 575, "mer": 576, "Ġkn": 577, "ark": 578, "ress": 579, "Ġwhen": 580, "ove": 581, "Ġthan": 582, "ents": 583, "ĠIt": 584, "ens": 585, "port": 586, "int": 587, "ition": 588, "irst": 589, "ors": 590, "ish": 591, "ound": 592, "ob": 593, "Ġtw": 594, "fter": 595, "Ġspe": 596, "Ġpe": 597, "ĠWe": 598, "Ġno": 599, "Ġpre": 600, "Ġbec": 601, "Ġro": 602, "ov": 603, "Ġwork": 604, "ory": 605, "ĠHe": 606, "Ġinto": 607, "vers": 608, "Ġfe": 609, "oy": 610, "itt": 611, "ren": 612, "wn": 613, "ck": 614, "ink": 615, "Ġits": 616, "ons": 617, "nder": 618, "ade": 619, "lic": 620, "Ġacc": 621, "Ġfirst": 622, "ild": 623, "Ġ19": 624, "Ġshe": 625, "ang": 626, "Ġ4": 627, "old": 628, "day": 629, "ople": 630, "ian": 631, "Ġam": 632, "Ġpr": 633, "clud": 634, "ning": 635, "Ġtwo": 636, "Ġonly": 637, "ause": 638, "...": 639, "Ġbl": 640, "hed": 641, "ft": 642, "amp": 643, "ates": 644, "Ġcomm": 645, "ater": 646, "iss": 647, "ull": 648, "rough": 649, "Ġback": 650, "Ġhow": 651, "ool": 652, "we": 653, ").": 654, "iew": 655, "ious": 656, "oll": 657, "anc": 658, "Ġmay": 659, "Ġneed": 660, "hing": 661, "Ġ5": 662, "Ġ200": 663, "Ġpeople": 664, "ual": 665, "ict": 666, "gr": 667, "Ġplay": 668, "ments": 669, "Ġhim": 670, "Ġsee": 671, "Ġadd": 672, "ec": 673, "Ġdes": 674, "Ġcould": 675, "Ġknow": 676, "Ġbet": 677, "ily": 678, "round": 679, "Ġprov": 680, "Ġafter": 681, "Ġfl": 682, "ect": 683, "Ġinclud": 684, "tern": 685, "com": 686, "Ġlook": 687, "rent": 688, "Ġact": 689, "Ġcons": 690, "Ġmost": 691, "Ġmake": 692, "oint": 693, "end": 694, "les": 695, "Ġind": 696, "Ġem": 697, "Ġunder": 698, "ĠThis": 699, "Ġevery": 700, "fore": 701, "Ġuse": 702, "ĠUn": 703, "ise": 704, "ont": 705, "ational": 706, "row": 707, "Ġthen": 708, "Ġwant": 709, "Th": 710, "ph": 711, "aw": 712, "urn": 713, ".\"": 714, "Ġthese": 715, "sel": 716, "Ġthrough": 717, "Ġdid": 718, "Ġnow": 719, "Ġeven": 720, "ities": 721, "als": 722, "Ġbu": 723, "xt": 724, "erm": 725, "ied": 726, "Ġshould": 727, "ject": 728, "Ġprodu": 729, "Ġwhere": 730, "ock": 731, "enc": 732, "Ġwell": 733, "ific": 734, "lect": 735, "Ġreg": 736, "ating": 737, "Ġvery": 738, "formation": 739, "Ġdon": 740, "Ġsub": 741, "Ġserv": 742, "oth": 743, "Ġbecause": 744, "fect": 745, "Ġinv": 746, "pect": 747, "ĠCom": 748, "Ġrel": 749, "ĠRe": 750, "Ġsec": 751, "ident": 752, "ss": 753, "Ġph": 754, "Ġway": 755, "Ġimp": 756, "ble": 757, "Ġhel": 758, "Ġke": 759, "),": 760, "Ġagain": 761, "Ġco": 762, "Ġstud": 763, "uch": 764, "Ġgood": 765, "ices": 766, "Ġgu": 767, "ty": 768, "Ġ$": 769, "oss": 770, "ath": 771, "Ġdif": 772, "ĠAnd": 773, "Ġ6": 774, "ason": 775, "ange": 776, "Ġrem": 777, "âĢľ": 778, "Ġyears": 779, "ts": 780, "Ġsm": 781, "hen": 782, "Ġtoo": 783, "Ġright": 784, ".âĢĿ": 785, "Ġhelp": 786, "ible": 787, "up": 788, "ting": 789, "Ġdown": 790, "erson": 791, "any": 792, "ife": 793, "pport": 794, "Ġcol": 795, "ited": 796, "Ġsy": 797, "Ġtra": 798, "Ġinc": 799, "Ġthink": 800, "ell": 801, "Ġfin": 802, "Ġent": 803, "other": 804, "rib": 805, "Ġwee": 806, "hes": 807, "ics": 808, "ased": 809, "und": 810, "olog": 811, "Ġdoes": 812, "rit": 813, "tain": 814, "ĠWh": 815, "uring": 816, "ven": 817, "||": 818, "Ġmany": 819, "ix": 820, "ures": 821, "ork": 822, "Ġgreat": 823, "Ġass": 824, "aking": 825, "cess": 826, "io": 827, "Ġlast": 828, "ys": 829, "ility": 830, "ward": 831, "chool": 832, "ĠâĢĵ": 833, "Ġsuch": 834, "Ġmade": 835, "ner": 836, "ower": 837, "ĠNew": 838, "Ġhere": 839, "get": 840, "ative": 841, "ular": 842, "Ġspec": 843, "Ġstart": 844, "ĠPro": 845, "iness": 846, "arch": 847, "Ġinformation": 848, "ĠSe": 849, "Ġbefore": 850, "Ġthose": 851, "ublic": 852, "ĠYou": 853, ",\"": 854, "Ġteam": 855, "ful": 856, "air": 857, "omet": 858, "Ġatt": 859, "Ġpres": 860, "Ġac": 861, "In": 862, "Ġmuch": 863, "Ġ9": 864, "ah": 865, "hip": 866, "ĠAl": 867, "Ġdec": 868, "ener": 869, "Ġset": 870, "Ġbeing": 871, "Ġlong": 872, "Ġcall": 873, "its": 874, "Ġshow": 875, "Ġown": 876, "Ġbr": 877, "ĠAn": 878, "Ġ10": 879, "Ġ8": 880, "Ġinst": 881, "velop": 882, "pr": 883, "stem": 884, "ĠDe": 885, "Ġinte": 886, "gan": 887, "ues": 888, "atch": 889, "Ġop": 890, "ince": 891, "Ġ7": 892, "ci": 893, "ĠBut": 894, "Ġday": 895, "ex": 896, "gram": 897, "rest": 898, "Ġmin": 899, "Ġtake": 900, ",âĢĿ": 901, "Ġra": 902, "Ġloc": 903, "oun": 904, "Ġfind": 905, "bs": 906, "Ġmon": 907, "ivers": 908, "Ġgoing": 909, "Ġsur": 910, "Ġread": 911, "ced": 912, "way": 913, "alk": 914, "Ġhigh": 915, "Ġsay": 916, "ĠIf": 917, "ars": 918, "usiness": 919, "Ġhand": 920, "Ġend": 921, "ave": 922, "Ġbel": 923, "view": 924, "Ġmem": 925, "Ġdiffe": 926, "We": 927, "Ġsl": 928, "ng": 929, "ank": 930, "alth": 931, "Ġ&": 932, "Ġwhile": 933, "Ġstill": 934, "man": 935, "ters": 936, "meric": 937, "Ġpoint": 938, "Ġthree": 939, "ene": 940, "ollow": 941, "read": 942, "Ġins": 943, "Ġrequ": 944, "Ġnum": 945, "Ġreport": 946, "ather": 947, "ins": 948, "Ġchar": 949, "irect": 950, "Ġdisc": 951, "Ġtrans": 952, "Ġused": 953, "ness": 954, "ms": 955, "Ġfr": 956, "Ġav": 957, "roup": 958, "ĠCl": 959, "self": 960, "Ġpol": 961, "Ġeach": 962, "cept": 963, "Ġlead": 964, "ax": 965, "Ġexper": 966, "ata": 967, "Ġreally": 968, "ames": 969, "ĠFor": 970, "land": 971, "Ġsomet": 972, "Ġperson": 973, "Ġear": 974, "Ġche": 975, "ets": 976, "Ġfam": 977, "Ġthough": 978, "Ġrun": 979, "Ġsame": 980, "ually": 981, "Ġcount": 982, "ĠSh": 983, "Ġcar": 984, "Ġaround": 985, "riv": 986, "ier": 987, "Ġstate": 988, "Ġdevelop": 989, "oot": 990, "ces": 991, "Ġbest": 992, "ĠAd": 993, "Ġdet": 994, "ines": 995, "led": 996, "Ġvis": 997, "az": 998, "Ġinter": 999, "Ġgr": 1000, "Ġsim": 1001, "Ġfil": 1002, "ale": 1003, "ute": 1004, "cer": 1005, "ug": 1006, "ple": 1007, "Ġmod": 1008, "Ġworld": 1009, "Ġsystem": 1010, "oh": 1011, "ween": 1012, "Ġprogram": 1013, "ives": 1014, "imes": 1015, "ouse": 1016, "Ġed": 1017, "ton": 1018, "lease": 1019, "ience": 1020, "ĠAmeric": 1021, "ĠLe": 1022, "ric": 1023, "Ġsign": 1024, "Ġlist": 1025, "ĠAr": 1026, "Ġser": 1027, "Ġret": 1028, "ittle": 1029, "iet": 1030, "line": 1031, "Ġcare": 1032, "Ġmed": 1033, "Ġadv": 1034, "ution": 1035, "Ġplace": 1036, "ffect": 1037, "Ġboth": 1038, "Ġcur": 1039, "Ġexp": 1040, "It": 1041, "Ġreal": 1042, "chn": 1043, "Ġbetween": 1044, "ĠBl": 1045, "Ġcre": 1046, "Ġgame": 1047, "unity": 1048, "Ġfollow": 1049, "ient": 1050, "Ġcour": 1051, "000": 1052, "uc": 1053, "Ġpost": 1054, "Ġstr": 1055, "akes": 1056, "Ġbook": 1057, "Ġfound": 1058, "bers": 1059, "der": 1060, "Ġmark": 1061, "Ġcomple": 1062, "Ġtop": 1063, "ash": 1064, "Ġcr": 1065, "Ġbo": 1066, "Ġhome": 1067, "ever": 1068, "Ġbusiness": 1069, "be": 1070, "ists": 1071, "Ġart": 1072, "Ġlife": 1073, "This": 1074, "Ġgot": 1075, "Ġdef": 1076, "Ġtri": 1077, "Ġschool": 1078, "Ġsecond": 1079, "Ġproduct": 1080, "Ġhapp": 1081, "ĠAs": 1082, "ploy": 1083, "ined": 1084, "Ġsupport": 1085, "the": 1086, "riend": 1087, "Ġrep": 1088, "ages": 1089, "Ġpass": 1090, "rence": 1091, "Ġprovid": 1092, "ER": 1093, "orn": 1094, "vern": 1095, "Ġ2012": 1096, "ense": 1097, "Ġlittle": 1098, "'re": 1099, "cent": 1100, "Ġfew": 1101, "ield": 1102, "Wh": 1103, "ision": 1104, "Ġcle": 1105, "iversity": 1106, "Ġdifferent": 1107, "Ġanother": 1108, "ĠThey": 1109, "ody": 1110, "ention": 1111, "Ġaut": 1112, "Ġ12": 1113, "Ġweek": 1114, "Ġpublic": 1115, "Ġi": 1116, "ird": 1117, "reen": 1118, "Ġwin": 1119, "ĠBe": 1120, "Ġask": 1121, "thing": 1122, "Ġcap": 1123, "Ġput": 1124, "Ġ0": 1125, "Ġpartic": 1126, "ways": 1127, "ger": 1128, "ĠFr": 1129, "Ġsomething": 1130, "Ġcome": 1131, "ize": 1132, "10": 1133, "Ġform": 1134, "Ġduring": 1135, "Ġgl": 1136, "Ġ18": 1137, "ved": 1138, "ants": 1139, "Ġplan": 1140, "ized": 1141, "Ġquest": 1142, "gg": 1143, "Ġsince": 1144, "Ġfour": 1145, "Ġdata": 1146, "Ġgener": 1147, "Ġallow": 1148, "Ġopen": 1149, "Ġconf": 1150, "less": 1151, "Ġdist": 1152, "Ġlove": 1153, "ĠâĢĶ": 1154, "Ġcontin": 1155, "Ġlot": 1156, "ik": 1157, "tt": 1158, "Ġext": 1159, "Ġfact": 1160, "Ġmonth": 1161, "ving": 1162, "Ġresp": 1163, "ology": 1164, "ished": 1165, "Ġhead": 1166, "Ġtry": 1167, "Ġthings": 1168, "Ġmov": 1169, "arm": 1170, "Ġappro": 1171, "ĠPl": 1172, "ature": 1173, "ley": 1174, "ired": 1175, "illion": 1176, "con": 1177, "Ġavail": 1178, "ering": 1179, "Ġfun": 1180, "Ġgroup": 1181, "Ġnext": 1182, "ĠCol": 1183, "Ġsmall": 1184, "Ġbig": 1185, "Ġfree": 1186, "Ġlet": 1187, "aj": 1188, "Ġint": 1189, "Ġeas": 1190, "Ġbetter": 1191, "Ġiss": 1192, "Ġinterest": 1193, "ok": 1194, "Ġlar": 1195, "Ġagainst": 1196, "Ġ'": 1197, "ission": 1198, "Ġdirect": 1199, "Ġincluding": 1200, "Ġmet": 1201, "uss": 1202, "Ġdesign": 1203, "ital": 1204, "Ġchild": 1205, "Ġfull": 1206, "Ġfeel": 1207, "Ġpur": 1208, "Ġprocess": 1209, "Ġkeep": 1210, "Ġ--": 1211, "ross": 1212, "Ġposs": 1213, "ĠComm": 1214, "Ġsk": 1215, "Ġusing": 1216, "Ġmight": 1217, "Ġide": 1218, "ott": 1219, "Ġstand": 1220, "Ġrest": 1221, "'m": 1222, "uck": 1223, "inal": 1224, "Ġseason": 1225, "Ġnumber": 1226, "ately": 1227, "ract": 1228, "ional": 1229, "ality": 1230, "son": 1231, "gy": 1232, ".,": 1233, "Ġob": 1234, "19": 1235, "att": 1236, "ically": 1237, "ĠAll": 1238, "ustom": 1239, "Ġrece": 1240, "Ġproble": 1241, "Ġhard": 1242, "Ġwithout": 1243, "Ġresult": 1244, "Ġsays": 1245, "ĠShe": 1246, "Ġcent": 1247, "Ġmust": 1248, "ves": 1249, "rand": 1250, "Ġnever": 1251, "oad": 1252, "outh": 1253, "Ġimport": 1254, "Ġ2013": 1255, "ior": 1256, "ĠThere": 1257, "Ġvar": 1258, "Ġtechn": 1259, "iving": 1260, "Ġprof": 1261, "IN": 1262, "Ġ20": 1263, "Ġavailable": 1264, "atur": 1265, "Ġpat": 1266, "ĠSo": 1267, "Ġref": 1268, "Ġexpl": 1269, "Ġseem": 1270, "Ġcor": 1271, "Ġrecord": 1272, "ample": 1273, "Ġ11": 1274, "Ġbro": 1275, "ared": 1276, "ered": 1277, "ĠOn": 1278, "arn": 1279, "ware": 1280, "ĠQ": 1281, "Ġcase": 1282, "Ġperform": 1283, "Ġold": 1284, "--": 1285, "ling": 1286, "Ġwr": 1287, "He": 1288, "Ġlaw": 1289, "Ġbuild": 1290, "Ġequ": 1291, "Ġalways": 1292, "Ġhealth": 1293, "Ġgive": 1294, "Ġel": 1295, "Ġunt": 1296, "Ġdays": 1297, "ases": 1298, "ining": 1299, "ww": 1300, "ged": 1301, "Ġfamily": 1302, "ON": 1303, "ret": 1304, "ĠTe": 1305, "ĠHow": 1306, "ator": 1307, "ĠThat": 1308, "ral": 1309, "enn": 1310, "ĠUS": 1311, "Ġeffect": 1312, "Ġinvest": 1313, "Ġmain": 1314, "rol": 1315, "Ġcompany": 1316, "ĠChr": 1317, "pped": 1318, "Ġlevel": 1319, "ĠTr": 1320, "une": 1321, "ĠEx": 1322, "Ġincre": 1323, "ohn": 1324, "ration": 1325, "Ġmus": 1326, "Ġlight": 1327, "Ġ15": 1328, "ency": 1329, "Ġsoc": 1330, "'ve": 1331, "here": 1332, "Ġcost": 1333, "Ġfriend": 1334, "ote": 1335, "ards": 1336, "stand": 1337, "Ġorgan": 1338, "ably": 1339, "osed": 1340, "Ġleg": 1341, "ES": 1342, "ĠUniversity": 1343, "ats": 1344, "orm": 1345, "ĠSp": 1346, "by": 1347, "Ġwom": 1348, "Ġsure": 1349, "Ġgovern": 1350, "ĠRep": 1351, "If": 1352, "Ġview": 1353, "ury": 1354, "Ġclass": 1355, "iver": 1356, "Ġless": 1357, "Ġnight": 1358, "ember": 1359, "Ġbre": 1360, "Ġann": 1361, "ges": 1362, "Ġtest": 1363, "âĢĶ": 1364, "iqu": 1365, "Ġpay": 1366, "ently": 1367, "Ġval": 1368, "ajor": 1369, "ĠOr": 1370, "Ġstudents": 1371, "âĢ¦": 1372, "eting": 1373, "Ġdel": 1374, "ĠPh": 1375, "Ġcurrent": 1376, "ĠZ": 1377, "ertain": 1378, "let": 1379, "ĠCon": 1380, "ified": 1381, "Ġproper": 1382, "Ġ[": 1383, "me": 1384, "ider": 1385, "ĠNo": 1386, "augh": 1387, "Ġcustom": 1388, "Ġsol": 1389, "Ġemploy": 1390, "ised": 1391, "Ġwater": 1392, "aster": 1393, "pend": 1394, "gin": 1395, "ron": 1396, "Ġinf": 1397, "ĠInd": 1398, "uman": 1399, "ope": 1400, "atter": 1401, "ten": 1402, "Ġ.": 1403, "Ġpower": 1404, "ism": 1405, "ĠRes": 1406, "tend": 1407, "Ġaccess": 1408, "els": 1409, "Ġty": 1410, "Ġprev": 1411, "med": 1412, "ead": 1413, "Ġturn": 1414, "AT": 1415, "oney": 1416, "Ġpos": 1417, "Ġtoday": 1418, "Ġservice": 1419, "Ġhist": 1420, "ium": 1421, "ccess": 1422, "Ġbas": 1423, "Ġproject": 1424, "Ġest": 1425, "aring": 1426, "of": 1427, "ĠState": 1428, "ĠMar": 1429, "Ġterm": 1430, "Ġve": 1431, "Ġdidn": 1432, "Ġpast": 1433, "lection": 1434, "'ll": 1435, "mon": 1436, "ption": 1437, "ffic": 1438, "ann": 1439, "ains": 1440, "Ġimportant": 1441, "eb": 1442, "30": 1443, "ither": 1444, "Ġleft": 1445, "Ġuntil": 1446, "Ġgrow": 1447, "Ġbelie": 1448, "ney": 1449, "sc": 1450, "ĠCent": 1451, "ted": 1452, "Ġthing": 1453, "12": 1454, "ĠIs": 1455, "artment": 1456, "ored": 1457, "ĠSc": 1458, "ference": 1459, "Ġlocal": 1460, "Ġsit": 1461, "ived": 1462, "50": 1463, "ery": 1464, "Ġwithin": 1465, "Ġroom": 1466, "AR": 1467, "orth": 1468, "isc": 1469, "ane": 1470, "Ġline": 1471, "ivid": 1472, "raph": 1473, "pping": 1474, "Ġjob": 1475, "Ġorder": 1476, "Ġable": 1477, "aim": 1478, "Ġfar": 1479, "oci": 1480, "aut": 1481, "Ġmen": 1482, "ps": 1483, "ideo": 1484, "ait": 1485, "bo": 1486, "ination": 1487, "Ġnear": 1488, "ruct": 1489, "Ġchang": 1490, "Ġ|": 1491, "Ġfac": 1492, "ball": 1493, "Ġaddition": 1494, "OR": 1495, "Ġaway": 1496, "Ġoper": 1497, "ĠJohn": 1498, "hor": 1499, "oor": 1500, "omm": 1501, "ids": 1502, "ĠCar": 1503, "Ġpop": 1504, "Ġnews": 1505, "Ġsite": 1506, "ĠMay": 1507, "ify": 1508, "Ġevent": 1509, "ina": 1510, "Ġchange": 1511, "ee": 1512, "Ġdra": 1513, "Ġprom": 1514, "Ġarea": 1515, "Ġsing": 1516, "ĠFl": 1517, "Ġsupp": 1518, "Ġbeh": 1519, "Ġ199": 1520, "ising": 1521, "Ġfood": 1522, "idence": 1523, "aps": 1524, "Ġtell": 1525, "ording": 1526, "Ġspecial": 1527, "lish": 1528, "ode": 1529, "ories": 1530, "Ġpresent": 1531, "For": 1532, "ours": 1533, "iron": 1534, "Ġexperience": 1535, "ĠAmerican": 1536, "work": 1537, "utes": 1538, "Ġmajor": 1539, "Ġmembers": 1540, "ready": 1541, "min": 1542, "AN": 1543, "play": 1544, "ĠAt": 1545, "ĠEng": 1546, "Ġdoesn": 1547, "aff": 1548, "ured": 1549, "ream": 1550, "ability": 1551, "alf": 1552, "ries": 1553, "Ġsal": 1554, "Ġever": 1555, "You": 1556, "Ġvisit": 1557, "Ġkind": 1558, "Ġrese": 1559, "Ġwhy": 1560, "Ġcame": 1561, "Ġprovide": 1562, "eral": 1563, "Ġcourse": 1564, "Ġreview": 1565, "br": 1566, "Ġfund": 1567, "book": 1568, "itions": 1569, "err": 1570, "Ġname": 1571, "ourn": 1572, "Ġwent": 1573, "Ġenough": 1574, "Ġ30": 1575, "mber": 1576, "Ġservices": 1577, "Ġ2011": 1578, "St": 1579, "Ġdri": 1580, "ush": 1581, "Ġtalk": 1582, "Ġocc": 1583, "idd": 1584, "Ġapplic": 1585, "Ġoffic": 1586, "ĠChrist": 1587, "Ġpercent": 1588, "conom": 1589, "Ġmil": 1590, "ĠTo": 1591, "Ġexpect": 1592, "urs": 1593, "Ġword": 1594, "Ġphot": 1595, "Ġbit": 1596, "iety": 1597, "Ġalready": 1598, "Ġfeat": 1599, "irc": 1600, "Ġmaking": 1601, "duct": 1602, "uro": 1603, "Ġdev": 1604, "por": 1605, "Ġwon": 1606, "Ġlooking": 1607, "Ġ...": 1608, "Ġmar": 1609, "Ġdoing": 1610, "Ġcalled": 1611, "irl": 1612, "Ġtook": 1613, "sh": 1614, "gether": 1615, "iam": 1616, "Ġtogether": 1617, "reet": 1618, "ump": 1619, "iven": 1620, "ances": 1621, "Ġ14": 1622, "Ġmove": 1623, "arent": 1624, "ĠWhen": 1625, "Ġcommunity": 1626, "Ġimpro": 1627, "Ġfive": 1628, "ĠCo": 1629, "Ġconst": 1630, "Ġdep": 1631, "Ġworking": 1632, "Ġintern": 1633, "20": 1634, "201": 1635, "Ġalong": 1636, "Ġcomput": 1637, "ows": 1638, "Ġtimes": 1639, "lege": 1640, "veral": 1641, "ĠMan": 1642, "Ġshort": 1643, "Ġeng": 1644, "Ġcomplete": 1645, "Ġmillion": 1646, "ĠMc": 1647, "hy": 1648, "Ġprote": 1649, "ama": 1650, "Ġlarge": 1651, "icle": 1652, "ĠSte": 1653, "Ġfollowing": 1654, "Ġactiv": 1655, "Ġsent": 1656, "ials": 1657, "Ġcountry": 1658, "11": 1659, "Ġonline": 1660, "As": 1661, "Ġcity": 1662, "Ġhold": 1663, "Ġleast": 1664, "Ġbene": 1665, "Ġorig": 1666, "Ġfav": 1667, "Ġmean": 1668, "Ġrele": 1669, "ober": 1670, "Ġvers": 1671, "Ġcharac": 1672, "uff": 1673, "Ġtold": 1674, "ĠApp": 1675, "Ġhaving": 1676, "joy": 1677, "not": 1678, "ĠWhat": 1679, "!!": 1680, "use": 1681, "Ġgetting": 1682, "Ġreturn": 1683, "uture": 1684, "Ġ16": 1685, "Ġfilm": 1686, "Ġmusic": 1687, "Ġgovernment": 1688, "Ġdr": 1689, "Ġmarket": 1690, "Ġchildren": 1691, "inc": 1692, "Ġes": 1693, "ensive": 1694, "ĠCount": 1695, "used": 1696, "Ġcontrol": 1697, "ler": 1698, "Ġdone": 1699, "EN": 1700, "ĠAm": 1701, "Ġinclude": 1702, "Ġquestion": 1703, "Ġseveral": 1704, "IS": 1705, "ients": 1706, "ert": 1707, "orts": 1708, "ividual": 1709, "Ġdiscuss": 1710, "uly": 1711, "ern": 1712, "Ġpar": 1713, "unch": 1714, "Ġside": 1715, "Ġpot": 1716, "resent": 1717, "Ġunderstand": 1718, "itor": 1719, "Ġlim": 1720, "Ġ17": 1721, "ully": 1722, "viron": 1723, "ĠMed": 1724, "ails": 1725, "Ġeduc": 1726, "200": 1727, "iday": 1728, "ĠYork": 1729, "app": 1730, "most": 1731, "An": 1732, "Ġsuccess": 1733, "Ġhappen": 1734, "Ġparticular": 1735, "Ġmeans": 1736, "Ġproducts": 1737, "ides": 1738, "Ġsw": 1739, "Ġyoung": 1740, "ĠUnited": 1741, "ners": 1742, "Ġonce": 1743, "Ġvideo": 1744, "ED": 1745, "Ġcou": 1746, "ills": 1747, "ches": 1748, "ister": 1749, "Ġsoft": 1750, "Ġpract": 1751, "What": 1752, "ĠÂ": 1753, "IT": 1754, "ape": 1755, "Ġcut": 1756, "Ġey": 1757, "aken": 1758, "ĠIntern": 1759, "de": 1760, "side": 1761, "Ġyet": 1762, "Ġtax": 1763, "Ġcertain": 1764, "Ġfield": 1765, "arr": 1766, "rop": 1767, "ĠAss": 1768, "Ġbecome": 1769, "Ġcheck": 1770, "Ġmakes": 1771, "Ġstory": 1772, "Ġcond": 1773, "Ġindust": 1774, "Ġmoney": 1775, "Ġdeal": 1776, "ization": 1777, "Ġaccount": 1778, "over": 1779, "Ġident": 1780, "Ġothers": 1781, "Ġthird": 1782, "Ġkey": 1783, "ĠCal": 1784, "Ġproblem": 1785, "Ġstep": 1786, "Ġclear": 1787, "Ġbenef": 1788, "Ġsum": 1789, "ĠWor": 1790, "Ġris": 1791, "Ġwrit": 1792, "ĠCity": 1793, "ĠWith": 1794, "pos": 1795, "Ġcamp": 1796, "Ġhot": 1797, "hers": 1798, "Ġconcer": 1799, "ĠMy": 1800, "Ġseen": 1801, "lished": 1802, "itive": 1803, "ĠTH": 1804, "Ġair": 1805, "Ġsound": 1806, "Ġeither": 1807, "itted": 1808, "Ġprofess": 1809, "Ġlive": 1810, "Ġreason": 1811, "Ġgames": 1812, "Ġconne": 1813, "Ġhig": 1814, "Ġfuture": 1815, "illed": 1816, "agement": 1817, "Ġeconom": 1818, "Ġstore": 1819, "unic": 1820, "Ġexample": 1821, "ĠâĢĺ": 1822, "Ġindividual": 1823, "Ġspecific": 1824, "Ġhuman": 1825, "But": 1826, "Ġnet": 1827, "Ġwhether": 1828, "Ġthought": 1829, "And": 1830, "Ġitem": 1831, "Ġtravel": 1832, "fer": 1833, "rew": 1834, "org": 1835, "Ġnon": 1836, "rict": 1837, "osp": 1838, "rown": 1839, "ĠSu": 1840, "aces": 1841, "Ġpossible": 1842, "Ġprob": 1843, "atic": 1844, "Ġhouse": 1845, "Ġelect": 1846, "Ġ24": 1847, "Ġoffer": 1848, "Ġopt": 1849, "Ġbased": 1850, "ĠEn": 1851, "ulation": 1852, "opy": 1853, "vironment": 1854, "Ġsix": 1855, "Ġopport": 1856, "Ġca": 1857, "15": 1858, "Ġmind": 1859, "ians": 1860, "itch": 1861, "Ġpain": 1862, "Ġoften": 1863, "room": 1864, "Ġpersonal": 1865, "lement": 1866, "Ġlow": 1867, "Ġclaim": 1868, "Ġtrad": 1869, "cial": 1870, "year": 1871, "Ġfore": 1872, "Ġtot": 1873, "Ġmom": 1874, "Ġenjoy": 1875, "ĠSy": 1876, "ĠBo": 1877, "Ġ13": 1878, "Ġcomes": 1879, "Ġquality": 1880, "Ġneeds": 1881, "CC": 1882, "ĠCan": 1883, "ĠGod": 1884, "AL": 1885, "right": 1886, "time": 1887, "Ġball": 1888, "ging": 1889, "Ġ25": 1890, "Ġclose": 1891, "Ġmonths": 1892, "Ġaud": 1893, "icy": 1894, "Ġwebs": 1895, "na": 1896, "Ġmult": 1897, "oice": 1898, "OU": 1899, "ĠPr": 1900, "There": 1901, "Ġago": 1902, "Ġdesc": 1903, "ential": 1904, "Ġlater": 1905, "Ġvict": 1906, "ĠX": 1907, "ony": 1908, "Ġlearn": 1909, "ibr": 1910, "ĠYour": 1911, "ched": 1912, "sw": 1913, "Ġfoc": 1914, "Ġant": 1915, "ource": 1916, "Ġinvol": 1917, ".)": 1918, "oke": 1919, "ĠNational": 1920, "ĠStates": 1921, "gle": 1922, "ster": 1923, "ources": 1924, "Ġearly": 1925, "Ġidea": 1926, "oon": 1927, "Ġhalf": 1928, "Ġbring": 1929, "ĠServ": 1930, "ots": 1931, "ĠPM": 1932, "Ġhistory": 1933, "anks": 1934, "Ġdeath": 1935, "Ġacross": 1936, "Ġanything": 1937, "Ġasked": 1938, "//": 1939, "ned": 1940, "back": 1941, "Ġhit": 1942, "ĠDep": 1943, "ĠJune": 1944, "Ġappear": 1945, "go": 1946, "Ġdevelopment": 1947, "aid": 1948, "par": 1949, "Ġpress": 1950, "fort": 1951, "ones": 1952, "ĠSouth": 1953, "ĠOne": 1954, "aper": 1955, "iously": 1956, "Ġstrong": 1957, "13": 1958, "Ġtre": 1959, "ille": 1960, "Ġwomen": 1961, "ison": 1962, "Ġmater": 1963, "Ġabove": 1964, "14": 1965, "wh": 1966, "ural": 1967, "ĠGe": 1968, "Ġknown": 1969, "Ġsocial": 1970, "ĠMad": 1971, "Ġaddress": 1972, "Ġactually": 1973, "urity": 1974, "Ġfront": 1975, "Ġtreat": 1976, "urther": 1977, "ĠJan": 1978, "ford": 1979, "Ġcontact": 1980, "Ġgiven": 1981, "Ġrespons": 1982, "Ġeasy": 1983, "now": 1984, "Ġwind": 1985, "my": 1986, "Ġcred": 1987, "Ġcomputer": 1988, "ued": 1989, "Ġland": 1990, "though": 1991, "Ġbad": 1992, "Ġpri": 1993, "Ġet": 1994, "allen": 1995, "ument": 1996, "Ġbody": 1997, "ights": 1998, "Ġenc": 1999, "Ġquick": 2000, "Ġ2010": 2001, "Ġminutes": 2002, "Ġcreat": 2003, "Ġce": 2004, "ique": 2005, "hod": 2006, "Ġ/": 2007, "ĠCont": 2008, "ĠNot": 2009, "Ġcompet": 2010, "Ġpage": 2011, "Ġmiss": 2012, "rodu": 2013, "Ġstudy": 2014, "ply": 2015, "ĠEm": 2016, "ips": 2017, "Ġconsider": 2018, "Ġresearch": 2019, "ilar": 2020, "Ġfriends": 2021, "iod": 2022, "Ġhost": 2023, "ĠEuro": 2024, "25": 2025, "amed": 2026, "ograph": 2027, "Ġamong": 2028, "Ġpoints": 2029, "ially": 2030, "Ġ:": 2031, "Ġface": 2032, "Ġpack": 2033, "Ġfinal": 2034, "Ġbelow": 2035, "Ġport": 2036, "ĠTw": 2037, "ift": 2038, "ained": 2039, "ĠBr": 2040, "ĠGr": 2041, "Ġener": 2042, "Ġpriv": 2043, "Ġwatch": 2044, "anies": 2045, "Ġauthor": 2046, "rab": 2047, "ĠGu": 2048, "Ġtem": 2049, "Ġtaken": 2050, "ĠPart": 2051, "Ġwhole": 2052, "Ġadded": 2053, "ators": 2054, "ĠWill": 2055, "Ġcompl": 2056, "Ġelse": 2057, "18": 2058, "ilt": 2059, "Ġcomb": 2060, "ĠWorld": 2061, "Ġfoot": 2062, "acy": 2063, "Ġpret": 2064, "Ġstarted": 2065, "Ġtrying": 2066, "Re": 2067, "ĠSchool": 2068, "Ġsingle": 2069, "itting": 2070, "://": 2071, "nes": 2072, "ĠAfter": 2073, "ĠMr": 2074, "Ġ198": 2075, "Ġfavor": 2076, "dd": 2077, "yle": 2078, "Ġsubject": 2079, "fully": 2080, "uation": 2081, "Ġmor": 2082, "Ġshall": 2083, "ĠCounty": 2084, "Ġmanag": 2085, "selves": 2086, "wards": 2087, "Ġmess": 2088, "ences": 2089, "ament": 2090, "Ġrather": 2091, "Ġpolit": 2092, "Ġpub": 2093, "Ġbar": 2094, "ĠComp": 2095, "Ġprobably": 2096, "16": 2097, "AS": 2098, "Ch": 2099, "So": 2100, "ek": 2101, "ĠSm": 2102, "aced": 2103, "Ġbegin": 2104, "ĠAf": 2105, "Ġnothing": 2106, "Ġmedia": 2107, "ttp": 2108, "IC": 2109, "Ġz": 2110, "imate": 2111, "ĠBar": 2112, "elt": 2113, "Ġbuy": 2114, "icult": 2115, "Ġwalk": 2116, "Ġdou": 2117, "verage": 2118, "Ġwebsite": 2119, "ateg": 2120, "rap": 2121, "Ġagree": 2122, "Ġeveryone": 2123, "Ġphys": 2124, "ommend": 2125, "Ġstop": 2126, "Ġshare": 2127, "Ġissue": 2128, "ague": 2129, "Ġupd": 2130, "Ġwanted": 2131, "Ġpretty": 2132, "Ã©": 2133, "Ġage": 2134, "ĠSer": 2135, "Ġrequire": 2136, "utions": 2137, "Ġisn": 2138, "Ġtou": 2139, "ashing": 2140, "Ġredu": 2141, "irm": 2142, "ĠQu": 2143, "'d": 2144, "Ġwar": 2145, "Ġanal": 2146, "Ġrepl": 2147, "che": 2148, "ĠDo": 2149, "17": 2150, "ĠMin": 2151, "minist": 2152, "Al": 2153, "Ġcirc": 2154, "Ġhours": 2155, "ĠWest": 2156, "Ġworks": 2157, "Ġperfect": 2158, "Ġsomeone": 2159, "Ġfeatures": 2160, "Ġplease": 2161, "ĠNorth": 2162, "Ġrepresent": 2163, "Ġbreak": 2164, "RE": 2165, "Ġfall": 2166, "Ġpie": 2167, "stit": 2168, "Ġgirl": 2169, "Ġalmost": 2170, "Ġemail": 2171, "Ġbehind": 2172, "Ġenergy": 2173, "yn": 2174, "ederal": 2175, "ided": 2176, "Ġeverything": 2177, "Ġparticip": 2178, "reg": 2179, "Ġpick": 2180, "ĠMe": 2181, "Ġsugg": 2182, "On": 2183, "ai": 2184, "Ġhope": 2185, "Ġeff": 2186, "Ġdem": 2187, "Ġbelieve": 2188, "Ġfail": 2189, "Ġla": 2190, "cially": 2191, "pro": 2192, "Ġbeaut": 2193, "Ġrad": 2194, "Ġentire": 2195, "Ġsuggest": 2196, "gest": 2197, "Ġtaking": 2198, "Ġtool": 2199, "Ġdi": 2200, "ĠThese": 2201, "ING": 2202, "Ġproperty": 2203, "Ġjo": 2204, "acebook": 2205, "mit": 2206, "ibility": 2207, "eds": 2208, "Ġsearch": 2209, "Ġseems": 2210, "Ġposition": 2211, "head": 2212, "Ġfre": 2213, "abor": 2214, "ands": 2215, "Ġperiod": 2216, "Ġseries": 2217, "ask": 2218, "ĠSec": 2219, "Ġquite": 2220, "Ġ#": 2221, "Ġareas": 2222, "Ġparty": 2223, "aur": 2224, "nding": 2225, "ĠDav": 2226, "earch": 2227, "Ġaccording": 2228, "Ġdoc": 2229, "Ġheart": 2230, "ried": 2231, "ĠEd": 2232, "Ġwond": 2233, "ĠMarch": 2234, "lt": 2235, "Ġtown": 2236, "Ġblog": 2237, "Ġpict": 2238, "pecially": 2239, "umb": 2240, "ogn": 2241, "Ġresults": 2242, "ilities": 2243, "Ġheld": 2244, "Ġrecommend": 2245, "pril": 2246, "Ġdeterm": 2247, "Ġcoming": 2248, "Ġamount": 2249, "OT": 2250, "iol": 2251, "Ġmeet": 2252, "Ġcompanies": 2253, "co": 2254, "lling": 2255, "Ġenvironment": 2256, "ĠCenter": 2257, "ĠNe": 2258, "itten": 2259, "Ġ2009": 2260, "Ġcontinue": 2261, "gress": 2262, "Ġdeb": 2263, "ĠEl": 2264, "fact": 2265, "lev": 2266, "Ġtrack": 2267, "Ġblack": 2268, "Ġaccept": 2269, "ĠHowever": 2270, "af": 2271, "Ġcrit": 2272, "ĠOb": 2273, "Ġcharacter": 2274, "Ġfire": 2275, "ĠChe": 2276, "Ġ100": 2277, "Ġevidence": 2278, "Ġspace": 2279, "Ġquestions": 2280, "Ġexc": 2281, "Ġmeas": 2282, "Ġdiff": 2283, "ĠHis": 2284, "ival": 2285, "Ġindustry": 2286, "empt": 2287, "off": 2288, "Ġexist": 2289, "resh": 2290, "Ġbuilding": 2291, "Ġmot": 2292, "Ġstaff": 2293, "ĠDepartment": 2294, "ef": 2295, "Ġdue": 2296, "irt": 2297, "Ġrecent": 2298, "ĠEurope": 2299, "When": 2300, "Ġsaw": 2301, "Ġboard": 2302, "Ġmatter": 2303, "ules": 2304, "Ġcreate": 2305, "Ġrisk": 2306, "To": 2307, "icro": 2308, "ĠPres": 2309, "ĠWar": 2310, "Ġissues": 2311, "ites": 2312, "Ġstat": 2313, "ounc": 2314, "itte": 2315, "Ġfurther": 2316, "aker": 2317, "Ġpurch": 2318, "iber": 2319, "Ġbase": 2320, "eth": 2321, "Ġcannot": 2322, "Ġevents": 2323, "Ġrelations": 2324, "load": 2325, "Ġap": 2326, "ĠAg": 2327, "ĠMark": 2328, "ĠFacebook": 2329, "Ġ21": 2330, "Ġ50": 2331, "Ġcommon": 2332, "Ġplayers": 2333, "asing": 2334, "Ġprovided": 2335, "Ġdefe": 2336, "Ġhowever": 2337, "inks": 2338, "ĠFeb": 2339, "ief": 2340, "Ġweeks": 2341, "aturday": 2342, "Ġtyp": 2343, "medi": 2344, "ĠCalif": 2345, "Ġconnect": 2346, "Ġnice": 2347, "Ġanim": 2348, "Ġsignific": 2349, "Ġcult": 2350, "22": 2351, "Ġobs": 2352, "Ġsex": 2353, "Ġanyone": 2354, "Ġlikely": 2355, "60": 2356, "ĠSund": 2357, "Ġwhite": 2358, "Ġclean": 2359, "Ġtechnology": 2360, "ĠAct": 2361, "Ġstay": 2362, "oogle": 2363, "ĠJust": 2364, "Ġprice": 2365, "Ġreceived": 2366, "arter": 2367, "lex": 2368, "ables": 2369, "ĠNews": 2370, "Ġtotal": 2371, "lf": 2372, "Ġred": 2373, "ĠCor": 2374, "Ġoffers": 2375, "Ġdisplay": 2376, "Ġfinanc": 2377, "Ġsimply": 2378, "AC": 2379, "vert": 2380, "ples": 2381, "Ġgeneral": 2382, "Ġproblems": 2383, "Ġprotect": 2384, "amer": 2385, "ĠDr": 2386, "Ġchallen": 2387, "Ġ2008": 2388, "ĠDes": 2389, "ung": 2390, "ĠInc": 2391, "Ġincludes": 2392, "ze": 2393, "Ġground": 2394, "ĠAug": 2395, "ĠPer": 2396, "Ġsoon": 2397, "Ġcontent": 2398, "Ġhon": 2399, "atural": 2400, "ĠOct": 2401, "icated": 2402, "Ġannoun": 2403, "Ġimprove": 2404, "Ġoriginal": 2405, "Ġlog": 2406, "âĢ¢": 2407, "clus": 2408, "Ġrunning": 2409, "Ġversion": 2410, "OM": 2411, "ox": 2412, "Ġopp": 2413, "rain": 2414, "Ġsuper": 2415, "Ġoffice": 2416, "Ġeducation": 2417, "Ġfocus": 2418, "Ġmag": 2419, "Ġselect": 2420, "unities": 2421, "onday": 2422, "Ġhands": 2423, "obal": 2424, "ole": 2425, "Ġcook": 2426, "olution": 2427, "ĠHigh": 2428, "Ġcomment": 2429, "Ġrange": 2430, "ĠOff": 2431, "anced": 2432, "ĠAmerica": 2433, "Ġabs": 2434, "Ġsoftware": 2435, "erc": 2436, "ĠPe": 2437, "Ġvol": 2438, "Ġrights": 2439, "How": 2440, "oe": 2441, "ring": 2442, "Ġimpact": 2443, "Ġfig": 2444, "Ġrespect": 2445, "Ġespecially": 2446, "sec": 2447, "oose": 2448, "Ġpresident": 2449, "ĠAssoci": 2450, "Ġste": 2451, "ĠGo": 2452, "oly": 2453, "itness": 2454, "ades": 2455, "Ġworth": 2456, "ĠKe": 2457, "Ġdescrib": 2458, "Ġansw": 2459, "Ġgoal": 2460, "Ġinvestig": 2461, "Ġtit": 2462, "Ġbott": 2463, "ĠAN": 2464, "ĠPark": 2465, "ĠLord": 2466, "angu": 2467, "sy": 2468, "eng": 2469, "Ġnational": 2470, "urch": 2471, "Ġrecently": 2472, "sp": 2473, "itary": 2474, "Ġhttp": 2475, "Ġrequired": 2476, "AP": 2477, "Ph": 2478, "iting": 2479, "Ġ22": 2480, "Ġarg": 2481, "Ġattack": 2482, "Ġperformance": 2483, "Ġcell": 2484, "ili": 2485, "obile": 2486, "Ġmember": 2487, "ashington": 2488, "Ġdifficult": 2489, "Ġwait": 2490, "ĠSome": 2491, "Ġhom": 2492, "Ġ23": 2493, "Ġkids": 2494, "Ġupon": 2495, "rel": 2496, "ĠPol": 2497, "ĠWeb": 2498, "ecut": 2499, "uesday": 2500, "Ġvalue": 2501, "ĠIm": 2502, "Ġnecess": 2503, "Ġens": 2504, "ĠStud": 2505, "Ġchanges": 2506, "vent": 2507, "iful": 2508, "ively": 2509, "ĠVal": 2510, "Ġroad": 2511, "ĠApril": 2512, "Ġwasn": 2513, "ĠFriday": 2514, "Ġsignificant": 2515, "ĠSen": 2516, "ĠHouse": 2517, "raft": 2518, "ume": 2519, "....": 2520, "Ġrequest": 2521, "Ġsimilar": 2522, "Ġcouple": 2523, "Ġnetwork": 2524, "OS": 2525, "uel": 2526, "vis": 2527, "Ġhigher": 2528, "?âĢĿ": 2529, "Ġill": 2530, "ĠAb": 2531, "Ġforward": 2532, "Ġpolice": 2533, "attle": 2534, "Ġadditional": 2535, "ĠSaturday": 2536, "ruction": 2537, "Ġplaying": 2538, "Ġmovie": 2539, "AM": 2540, "ky": 2541, "mitted": 2542, "hel": 2543, "rect": 2544, "reme": 2545, "roll": 2546, "adem": 2547, "Ġweb": 2548, "Ġtext": 2549, "Ġassist": 2550, "ctor": 2551, "Ġusers": 2552, "Ġrole": 2553, "That": 2554, "Ġprovides": 2555, "ibrary": 2556, "Ġmat": 2557, "Ġdam": 2558, "ached": 2559, "ĠStreet": 2560, "Ġshows": 2561, "like": 2562, "Ġinn": 2563, "Ġlate": 2564, "Ġleav": 2565, "Ġregard": 2566, "Ġlonger": 2567, "ittee": 2568, "ĠBy": 2569, "Ġinstall": 2570, "ouncil": 2571, "iter": 2572, "Ġord": 2573, "Ġviol": 2574, "Ġcontract": 2575, "Ġreported": 2576, "ET": 2577, "Ġaction": 2578, "Ġbegan": 2579, "ĠGl": 2580, "Ġestab": 2581, "ĠSept": 2582, "Ġcareer": 2583, "ule": 2584, "ification": 2585, "Ġdecision": 2586, "ĠCaliforn": 2587, "gs": 2588, "Ġlost": 2589, "pper": 2590, "ĠJuly": 2591, "mb": 2592, "Ġtable": 2593, "ĠSpe": 2594, "ĠGoogle": 2595, "Ġcollect": 2596, "Ġprograms": 2597, "Ġitems": 2598, "Ġloss": 2599, "cell": 2600, "kend": 2601, "ĠRec": 2602, "ĠPresident": 2603, "24": 2604, "Sh": 2605, "Ġur": 2606, "Ġblood": 2607, "Ġregular": 2608, "Ġarticle": 2609, "Ġwords": 2610, "Ġtouch": 2611, "uary": 2612, "Ġinit": 2613, "Ġlink": 2614, "Ġvictim": 2615, "ires": 2616, "ĠMich": 2617, "key": 2618, "Ġincrease": 2619, "Ġcases": 2620, "Ġdig": 2621, "ĠOur": 2622, "Ġneeded": 2623, "Ġplayed": 2624, "light": 2625, "inary": 2626, "Ġsize": 2627, "Ġfile": 2628, "urance": 2629, "Ġexam": 2630, "Ġteac": 2631, "Ġrecogn": 2632, "Ġopportunity": 2633, "ĠSunday": 2634, "ĠMore": 2635, "Ġround": 2636, "Ġswe": 2637, "oved": 2638, "ĠAfric": 2639, "eter": 2640, "Ġheav": 2641, "ĠHealth": 2642, "Ġple": 2643, "ana": 2644, "âĢĵ": 2645, "ĠPat": 2646, "Ġsystems": 2647, "cle": 2648, "Ġfast": 2649, "Ġmeeting": 2650, "Post": 2651, "Ġsqu": 2652, "ara": 2653, "ĠNow": 2654, "Ġtrue": 2655, "Ġscreen": 2656, "ruary": 2657, "Ġcommunic": 2658, "Ġmethod": 2659, "Ġsense": 2660, "Ġoutside": 2661, "Ġthemselves": 2662, "overed": 2663, "Ġremain": 2664, "ault": 2665, "down": 2666, "Ġtype": 2667, "Ġmoment": 2668, "Ġcredit": 2669, "bur": 2670, "ipe": 2671, "Ġgoes": 2672, "iddle": 2673, "face": 2674, "Ġattend": 2675, "Ġleave": 2676, "Ġcolor": 2677, "hya": 2678, "Ġsummer": 2679, "AA": 2680, "bor": 2681, "wood": 2682, "ises": 2683, "Ġinj": 2684, "ĠSoc": 2685, "ĠMonday": 2686, "hern": 2687, "Ġplayer": 2688, "ĠRead": 2689, "ĠCollege": 2690, "Ġpull": 2691, "Ġprep": 2692, "Ġconsum": 2693, "Ġmorning": 2694, "lu": 2695, "where": 2696, "Ġpers": 2697, "ĠWed": 2698, "iff": 2699, "ops": 2700, "Ġimmedi": 2701, "Ġobject": 2702, "ĠMadhya": 2703, "ĠObama": 2704, "ĠAM": 2705, "cember": 2706, "chie": 2707, "Ġchance": 2708, "Ġhimself": 2709, "Ġrelationship": 2710, "Ġtakes": 2711, "Ġdefin": 2712, "ursday": 2713, "ĠTHE": 2714, "Ġprivate": 2715, "Ġsus": 2716, "ening": 2717, "Ġmention": 2718, "Ġ2014": 2719, "Ġsaying": 2720, "Ġmodel": 2721, "Ġcurrently": 2722, "Ġcustomers": 2723, "ville": 2724, "Ġoil": 2725, "Ġcal": 2726, "Ġdate": 2727, "Ġstri": 2728, "ledge": 2729, "Ġapplication": 2730, "haps": 2731, "ĠTra": 2732, "ĠWashington": 2733, "Ġreports": 2734, "Ġwrong": 2735, "Ġboy": 2736, "oud": 2737, "Ġparent": 2738, "Ġsecurity": 2739, "Ġinstead": 2740, "23": 2741, "LE": 2742, "ees": 2743, "hib": 2744, "lier": 2745, "Ġclub": 2746, "Ġtraining": 2747, "Ġattempt": 2748, "ournal": 2749, "aul": 2750, "Ġclos": 2751, "ovember": 2752, "Ġcourt": 2753, "ĠCalifornia": 2754, "ino": 2755, "ude": 2756, "Ġframe": 2757, "Ġgen": 2758, "ĠCour": 2759, "ĠDay": 2760, "Ġcomments": 2761, "itional": 2762, "Ġ40": 2763, "Ġcreated": 2764, "Ġcause": 2765, "Ġliving": 2766, "Ġrelease": 2767, "Ġpopular": 2768, "oes": 2769, "uit": 2770, "ental": 2771, "Ġhear": 2772, "At": 2773, "Ġdest": 2774, "Ġdeg": 2775, "ession": 2776, "Ġcontrib": 2777, "Ġpolicy": 2778, "Ġexpress": 2779, "uge": 2780, "ĠAust": 2781, "ĠMon": 2782, "Ġvia": 2783, "iple": 2784, "Ġmanagement": 2785, "Ġextra": 2786, "oom": 2787, "ufact": 2788, "ĠHar": 2789, "Ġlooks": 2790, "Ġphone": 2791, "Ġintrodu": 2792, "Ġetc": 2793, "99": 2794, "atest": 2795, "isl": 2796, "ese": 2797, "ĠSan": 2798, "see": 2799, "rought": 2800, "Ġinde": 2801, "Ġprior": 2802, "\".": 2803, "Ġformer": 2804, "Ġitself": 2805, "Ġdead": 2806, "Ġsurpr": 2807, "Ġterms": 2808, "leg": 2809, "Ġbox": 2810, "aught": 2811, "Ġengine": 2812, "Ġsong": 2813, "Ġmatch": 2814, "Ġgrad": 2815, "Ġeyes": 2816, "nesday": 2817, "cast": 2818, "ray": 2819, "ened": 2820, "Ġmix": 2821, "Ġrelated": 2822, "Ġsimple": 2823, "Ġbooks": 2824, "lin": 2825, "Ġcode": 2826, "omin": 2827, "Ġdise": 2828, "aching": 2829, "Ġincluded": 2830, "Ġassoci": 2831, "www": 2832, "US": 2833, "Ġsat": 2834, "Ġwoman": 2835, "ĠDavid": 2836, "bit": 2837, "Ġjud": 2838, "All": 2839, "aign": 2840, "aily": 2841, "Ġsn": 2842, "Ġsle": 2843, "str": 2844, "ĠSch": 2845, "Ġsepar": 2846, "raw": 2847, "Ġfinancial": 2848, "70": 2849, "based": 2850, "put": 2851, "oura": 2852, "ety": 2853, "Ġleaders": 2854, "ĠRepublic": 2855, "Ġmilitary": 2856, "Ġinvolved": 2857, "Ġcover": 2858, "Ġdraw": 2859, "Ġpotential": 2860, "Ġachie": 2861, "Ġfight": 2862, "ĠSci": 2863, "ĠTuesday": 2864, "idge": 2865, "ĠDecember": 2866, "CT": 2867, "Ġgave": 2868, "uses": 2869, "ocr": 2870, "Ġdetails": 2871, "AD": 2872, "ming": 2873, "icks": 2874, "istic": 2875, "venue": 2876, "bl": 2877, "cing": 2878, "Ġcoll": 2879, "izing": 2880, "ĠReg": 2881, "ĠEnglish": 2882, "come": 2883, "Ġfish": 2884, "Ġfederal": 2885, "Ġsales": 2886, "ĠCanad": 2887, "ux": 2888, "asons": 2889, "Ġ28": 2890, "Ġnote": 2891, "Ġclick": 2892, "Ġimag": 2893, "Ġstarting": 2894, "Ġreceive": 2895, "ĠTrans": 2896, "ael": 2897, "Ġlower": 2898, "urt": 2899, "illing": 2900, "Ġprop": 2901, "ĠDis": 2902, "ĠJames": 2903, "Ġsafe": 2904, "Ġadminist": 2905, "Ġgrowth": 2906, "ospital": 2907, "mission": 2908, "ny": 2909, "Ġtour": 2910, "inner": 2911, "Ġnorm": 2912, "Ġteams": 2913, "ĠReport": 2914, "Ġmaterial": 2915, "ĠDon": 2916, "ript": 2917, "aby": 2918, "gar": 2919, "Ġwide": 2920, "atory": 2921, "alt": 2922, "Ġlay": 2923, "Ġstates": 2924, "ĠFin": 2925, "ĠGroup": 2926, "fered": 2927, "Ġappe": 2928, "ounter": 2929, "ID": 2930, "ns": 2931, "Ġdark": 2932, "ĠRed": 2933, "Ġinside": 2934, "28": 2935, "With": 2936, "Ġways": 2937, "Ġcool": 2938, "Ġhor": 2939, "Ġvarious": 2940, "Cl": 2941, "oring": 2942, "acing": 2943, "ĠHer": 2944, "Ġtrial": 2945, "Ġwonder": 2946, "Ġlangu": 2947, "irit": 2948, "Ġexcept": 2949, "Ġguy": 2950, "iant": 2951, "Ġsold": 2952, "ester": 2953, "Ġbillion": 2954, "Ġexact": 2955, "Ġworked": 2956, "Ġweekend": 2957, "Ġslow": 2958, "Ġbeautiful": 2959, "Ġaw": 2960, "erve": 2961, "Ġsens": 2962, "ett": 2963, "ĠPre": 2964, "Ġthroughout": 2965, "Ġhappy": 2966, "No": 2967, "Ġnatural": 2968, "Ġability": 2969, "Ġdirector": 2970, "Ġideas": 2971, "Ġstandard": 2972, "board": 2973, "Ġrev": 2974, "Ġsend": 2975, "akers": 2976, "Ġscore": 2977, "Ġschools": 2978, "My": 2979, "Ġsen": 2980, "Ġpan": 2981, "ĠIN": 2982, "ĠKim": 2983, "Ġprint": 2984, "Ġwritten": 2985, "Ġinternational": 2986, "Ġreleased": 2987, "ION": 2988, "Ġstuff": 2989, "Ġself": 2990, "ĠChar": 2991, "Ġcapt": 2992, "Ġturned": 2993, "IL": 2994, "itter": 2995, "ĠOf": 2996, "Ġquickly": 2997, "zz": 2998, "Ġx": 2999, "Ġbed": 3000, "ĠBro": 3001, "ought": 3002, "Ġdesigned": 3003, "Ġlevels": 3004, "Ġfavorite": 3005, "ĠAugust": 3006, "Ġ,": 3007, "Ġmass": 3008, "Ġrent": 3009, "Ġrate": 3010, "apan": 3011, "ords": 3012, "bum": 3013, "Ġcand": 3014, "arget": 3015, "uted": 3016, "ĠUp": 3017, "Ġreading": 3018, "Ġcele": 3019, "ĠSeptember": 3020, "Ġsection": 3021, "Ġunique": 3022, "Ġbenefits": 3023, "21": 3024, "40": 3025, "Ġfair": 3026, "Ġfresh": 3027, "Ġlatest": 3028, "ĠRE": 3029, "Ġregist": 3030, "Ġexpected": 3031, "ham": 3032, "orge": 3033, "Ġdeep": 3034, "ĠOh": 3035, "ĠThursday": 3036, "Ġmyself": 3037, "Ġgets": 3038, "Ġbuilt": 3039, "Ġready": 3040, "Ġdifference": 3041, "Ġmedical": 3042, "Ġinteresting": 3043, "IG": 3044, "oul": 3045, "uth": 3046, "idents": 3047, "Ġstru": 3048, "Ġbecame": 3049, "Ġprofessional": 3050, "26": 3051, "itc": 3052, "isions": 3053, "Ġdiv": 3054, "ĠDem": 3055, "ĠGener": 3056, "Ġbroad": 3057, "ĠJanuary": 3058, "Ġpublished": 3059, "iation": 3060, "Ġsource": 3061, "Ġep": 3062, "olf": 3063, "ription": 3064, "ĠThen": 3065, "Ġshoot": 3066, "ĠOF": 3067, "Ġremember": 3068, "uk": 3069, "onse": 3070, "Ġbud": 3071, "ĠTex": 3072, "ams": 3073, "ĠMiss": 3074, "Ġspeed": 3075, "Ġfunction": 3076, "New": 3077, "body": 3078, "Ġcopy": 3079, "Ġfans": 3080, "Ġpian": 3081, "Ġdro": 3082, "ĠII": 3083, "ceed": 3084, "Ġconv": 3085, "unt": 3086, "ĠWhile": 3087, "Ġlimited": 3088, "Ġpolitical": 3089, "oid": 3090, "pite": 3091, "apt": 3092, "Ġbecom": 3093, "rows": 3094, "ĠArt": 3095, "ĠBlack": 3096, "ĠWilliam": 3097, "cy": 3098, "Ġcard": 3099, "idered": 3100, "ipment": 3101, "Ġstudent": 3102, "Ġallowed": 3103, "Ġdrive": 3104, "val": 3105, "Ġshot": 3106, "Ġguys": 3107, "Ġcollege": 3108, "ĠWednesday": 3109, "ago": 3110, "Ġnamed": 3111, "Ġconduct": 3112, "ĠJack": 3113, "Ġleading": 3114, "ĠFebruary": 3115, "ĠAssociation": 3116, "Ġtal": 3117, "Ġaffect": 3118, "inger": 3119, "icles": 3120, "Ġlives": 3121, "ĠTV": 3122, "ida": 3123, "ctions": 3124, "Ġvot": 3125, "airs": 3126, "Ġprevent": 3127, "ĠCourt": 3128, "Ġten": 3129, "Ġwall": 3130, "Ġled": 3131, "rote": 3132, "astic": 3133, "erved": 3134, "Ġknew": 3135, "ĠCommission": 3136, "bed": 3137, "imately": 3138, "Ġ26": 3139, "ests": 3140, "Ġimage": 3141, "Ġindic": 3142, "Ġfine": 3143, "Ġmaster": 3144, "omp": 3145, "ĠAc": 3146, "Ġdecided": 3147, "ground": 3148, "Ġ*": 3149, "atives": 3150, "Ġnature": 3151, "ĠSw": 3152, "Ġheard": 3153, "ĠGerm": 3154, "apter": 3155, "Ġsurv": 3156, "Ġinterview": 3157, "Ġallows": 3158, "Ġrespond": 3159, "Ġtick": 3160, "ĠNovember": 3161, "Ġrout": 3162, "Ġusually": 3163, "riving": 3164, "Ġconditions": 3165, "ĠOctober": 3166, "80": 3167, "Ġtur": 3168, "Ġfelt": 3169, "Ġhol": 3170, "Ġnation": 3171, "Ġstar": 3172, "Ġexecut": 3173, "Ġcoach": 3174, "Ġattention": 3175, "Ġgroups": 3176, "May": 3177, "ban": 3178, "Ġess": 3179, "ĠDirect": 3180, "ĠGreen": 3181, "agn": 3182, "azing": 3183, "Ġdocument": 3184, "Ġemer": 3185, "ĠBrit": 3186, "anger": 3187, "ological": 3188, "Ġdetail": 3189, "Ġactivities": 3190, "ĠServices": 3191, "Be": 3192, "rim": 3193, "Ġlab": 3194, "Ġeight": 3195, "ĠSim": 3196, "ĠWind": 3197, "ĠOp": 3198, "ĠKing": 3199, "ĠSee": 3200, "Ġmaintain": 3201, "Posted": 3202, "ding": 3203, "fl": 3204, "just": 3205, "Ġbrought": 3206, "ĠMet": 3207, "Ġstyle": 3208, "Ġknowledge": 3209, "Ġintegr": 3210, "ĠInternational": 3211, "Ġaward": 3212, "ona": 3213, "Ġband": 3214, "Ġpark": 3215, "anch": 3216, "ĠInt": 3217, "lying": 3218, "ĠLaw": 3219, "aged": 3220, "Ġsave": 3221, "Ġimm": 3222, "Ġopin": 3223, "Ġnumbers": 3224, "After": 3225, "One": 3226, "Ġwitness": 3227, "Ġhuge": 3228, "ĠMost": 3229, "Ġstra": 3230, "Ġ27": 3231, "ĠUs": 3232, "ĠOffice": 3233, "ien": 3234, "name": 3235, "pose": 3236, "yond": 3237, "ĠJe": 3238, "Ġdoor": 3239, "mercial": 3240, "Ġfloor": 3241, "By": 3242, "band": 3243, "Ġson": 3244, "Ġbill": 3245, "ivity": 3246, "Ġenter": 3247, "Ġcosts": 3248, "Pro": 3249, "She": 3250, "ĠRober": 3251, "Ġconsidered": 3252, "Ġvariety": 3253, "ma": 3254, "Ġcross": 3255, "Ġbrand": 3256, "Ġuser": 3257, "ccording": 3258, "Ġmanufact": 3259, "example": 3260, "ĠInternet": 3261, "Ġanswer": 3262, "Ġdied": 3263, "Ġhy": 3264, "Ġbeat": 3265, "Ġrules": 3266, "Ġwhose": 3267, "Ġproduction": 3268, "Ġtried": 3269, "Ġrestaur": 3270, "Ġwriting": 3271, "aries": 3272, "Ġhop": 3273, "Ġfeet": 3274, "Ġsituation": 3275, "Ġpractice": 3276, "OL": 3277, "iance": 3278, "Ġut": 3279, "Ġdepend": 3280, "oph": 3281, "ĠFlor": 3282, "ipping": 3283, "wise": 3284, "Ġcat": 3285, "ĠBusiness": 3286, "Ġparts": 3287, "ecause": 3288, "Ġcenter": 3289, "fficient": 3290, "Ġtalking": 3291, "ĠTexas": 3292, "pri": 3293, "Ġaf": 3294, "Ġweight": 3295, "Ġalbum": 3296, "oday": 3297, "Ġcompletely": 3298, "Ġnecessary": 3299, "45": 3300, "field": 3301, "ipp": 3302, "aches": 3303, "ĠPar": 3304, "Ġconcept": 3305, "Ġrace": 3306, "aint": 3307, "Ġchamp": 3308, "They": 3309, "Ġprim": 3310, "Ġdistrib": 3311, "Ġpaper": 3312, "Ġmother": 3313, "ĠSri": 3314, "irth": 3315, "raz": 3316, "Ġdecl": 3317, "Ġplans": 3318, "Ġsaf": 3319, "Ġcouldn": 3320, "Ġapproach": 3321, "Ġletter": 3322, "Ġnearly": 3323, "27": 3324, "Ġaverage": 3325, "reed": 3326, "Ġsort": 3327, "Ġlocated": 3328, "Ġcorrect": 3329, "Ġcustomer": 3330, "Ġprevious": 3331, "enty": 3332, "Ġcomfort": 3333, "Ġpartners": 3334, "Ġfell": 3335, "Ġ2006": 3336, "Ġcountries": 3337, "hood": 3338, "Ġcy": 3339, "Ġbird": 3340, "Ġthreat": 3341, "ĠNet": 3342, "ivil": 3343, "ondon": 3344, "Ġexperi": 3345, "Ġsometimes": 3346, "Ġfiles": 3347, "Ġeasily": 3348, "error": 3349, "ournament": 3350, "iny": 3351, "Ġbal": 3352, "aste": 3353, "ĠCons": 3354, "Ġult": 3355, "Ġneigh": 3356, "ounds": 3357, "ares": 3358, "Ġwrote": 3359, "Ġcateg": 3360, "Ġmid": 3361, "omen": 3362, "ĠJapan": 3363, "Ġchoice": 3364, "Ġsett": 3365, "Ġencoura": 3366, "Ġwww": 3367, "Ġdru": 3368, "Ġgrand": 3369, "Ġalthough": 3370, "Ġneg": 3371, "ĠPlay": 3372, "Ġensure": 3373, "Ġlack": 3374, "ĠPort": 3375, "Ġresources": 3376, "Ġcollection": 3377, "Ġcampaign": 3378, "stitute": 3379, "uments": 3380, "Ġones": 3381, "Ġprogress": 3382, "atever": 3383, "ĠEvery": 3384, "reng": 3385, "Ġdirectly": 3386, "Ġinflu": 3387, "Ġsites": 3388, "Ġeconomic": 3389, "EL": 3390, "Ġlines": 3391, "Ġgreen": 3392, "aging": 3393, "Ġcontain": 3394, "Ġqual": 3395, "Ġmaybe": 3396, "Ġconsist": 3397, "Ġequipment": 3398, "king": 3399, "win": 3400, "ĠEast": 3401, "Ġregion": 3402, "ysis": 3403, "Ġcarry": 3404, "TL": 3405, "hest": 3406, "Ġsil": 3407, "Ġgiving": 3408, "more": 3409, "Ġfix": 3410, "arc": 3411, "Ġproced": 3412, "ĠDan": 3413, "Ġlear": 3414, "action": 3415, "Ġdownload": 3416, "ran": 3417, "vey": 3418, "ĠFirst": 3419, "Ġseven": 3420, "Ġshown": 3421, "ĠJud": 3422, "Ġquarter": 3423, "Ġcapital": 3424, "Ġresponse": 3425, "Ġoccur": 3426, "iable": 3427, "estern": 3428, "Ġmis": 3429, "asy": 3430, "imer": 3431, "ĠHall": 3432, "rael": 3433, "ĠEar": 3434, "Ġvac": 3435, "Ġ2007": 3436, "Ġfinish": 3437, "Ġearlier": 3438, "uate": 3439, "Ġimplement": 3440, "ructure": 3441, "EO": 3442, "ki": 3443, "Ġdress": 3444, "ston": 3445, "ĠMus": 3446, "ĠDV": 3447, "izes": 3448, "Ġscene": 3449, "Ġarriv": 3450, "Ġlaws": 3451, "Ġpred": 3452, "ils": 3453, "ĠDec": 3454, "Ġspent": 3455, "Ġscience": 3456, "Ġscient": 3457, "iction": 3458, "Ġlooked": 3459, "Ġthinking": 3460, "ĠAlso": 3461, "Ġpatients": 3462, "Ġlegal": 3463, "Ġdevice": 3464, "Ġwish": 3465, "Ġcup": 3466, "Ġbi": 3467, "iles": 3468, "Ġsell": 3469, "Ġuses": 3470, "Ġposted": 3471, "Ġtrip": 3472, "Ġappropri": 3473, "aughter": 3474, "Ġchanged": 3475, "Ġdisease": 3476, "Our": 3477, "itable": 3478, "iding": 3479, "ĠCouncil": 3480, "ĠPlease": 3481, "Ġyourself": 3482, "ĠWell": 3483, "Ġroll": 3484, "Ġfeature": 3485, "Ġwants": 3486, "Ġcharge": 3487, "Ġautom": 3488, "Ġlegisl": 3489, "Ġemployment": 3490, "Ġparticularly": 3491, "Ġhotel": 3492, "Ġtools": 3493, "Ġannounced": 3494, "Ġreference": 3495, "Ġge": 3496, "ĠIS": 3497, "ĠAut": 3498, "Ġpropos": 3499, "ĠFrom": 3500, "ags": 3501, "Ġwouldn": 3502, "Ġ197": 3503, "ĠWhite": 3504, "ĠProf": 3505, "Ġproviding": 3506, "Ġeffective": 3507, "Ġapplications": 3508, "33": 3509, "Ġgives": 3510, "ĠMem": 3511, "ander": 3512, "Ġperhaps": 3513, "Ġimmediately": 3514, "ĠAustral": 3515, "IV": 3516, "mp": 3517, "asc": 3518, "ension": 3519, "ĠHere": 3520, "Ġgreater": 3521, "Ġinsurance": 3522, "Ġlo": 3523, "Ġlik": 3524, "Ġgun": 3525, "ĠDist": 3526, "Ġappl": 3527, "Ġmultiple": 3528, "Ġpicture": 3529, "Ġtitle": 3530, "itation": 3531, "Ġbul": 3532, "sequ": 3533, "ĠAnn": 3534, "Ġmessage": 3535, "IP": 3536, "mat": 3537, "Ġwife": 3538, "Ġfan": 3539, "Ġpoll": 3540, "Ġhour": 3541, "Ġforce": 3542, "ulations": 3543, "ocol": 3544, "Ġadult": 3545, "force": 3546, "Ġtreatment": 3547, "mas": 3548, "Ġbus": 3549, "Ġlic": 3550, "Ġreve": 3551, "imum": 3552, "iring": 3553, "raq": 3554, "ĠOR": 3555, "Ġchoose": 3556, "Ġplant": 3557, "ibly": 3558, "ĠClass": 3559, "Ġbusinesses": 3560, "Ġextreme": 3561, "Ġveh": 3562, "IM": 3563, "ST": 3564, "nds": 3565, "ĠPaul": 3566, "ĠLondon": 3567, "ĠUt": 3568, "Ġ80": 3569, "Ġhistor": 3570, "Ġparents": 3571, "CH": 3572, "Ġver": 3573, "Ġsun": 3574, "Ġthous": 3575, "ilies": 3576, "ĠBu": 3577, "Ġdeveloped": 3578, "Ġmoved": 3579, "Ġorganiz": 3580, "Ġprojects": 3581, "Ġsenior": 3582, "rs": 3583, "inally": 3584, "arily": 3585, "ico": 3586, "Ġbeyond": 3587, "ĠMor": 3588, "ĠMah": 3589, "ĠLa": 3590, "Ġserved": 3591, "ĠCommittee": 3592, "gers": 3593, "osh": 3594, "Ġfinally": 3595, "Ġinterested": 3596, "29": 3597, "rig": 3598, "ĠHome": 3599, "rian": 3600, "ously": 3601, "soft": 3602, "Ġamazing": 3603, "anya": 3604, "Ġinstit": 3605, "Ġjobs": 3606, "Ġdoub": 3607, "Ġdouble": 3608, "Se": 3609, "but": 3610, "spe": 3611, "Ġaff": 3612, "aly": 3613, "ooper": 3614, "Ġconference": 3615, "Ġsche": 3616, "Ġblock": 3617, "Ġcentral": 3618, "ĠIsrael": 3619, "Ġofficials": 3620, "Ġresponsible": 3621, "vest": 3622, "Ġcamer": 3623, "Ġmach": 3624, "iment": 3625, "enced": 3626, "Ġruns": 3627, "ĠSuper": 3628, "Ġoptions": 3629, "ĠService": 3630, "Ex": 3631, "opping": 3632, "Ġbur": 3633, "Ġded": 3634, "ĠCap": 3635, "amb": 3636, "ĠPC": 3637, "ĠPal": 3638, "ĠHon": 3639, "Ġplaces": 3640, "Ġspeak": 3641, "Ġprem": 3642, "Ġskin": 3643, "Ġmajority": 3644, "Ġfigure": 3645, "Ġexactly": 3646, "TS": 3647, "Ġtarget": 3648, "owers": 3649, "Ġstreng": 3650, "ĠRich": 3651, "arden": 3652, "itely": 3653, "azine": 3654, "Ġannual": 3655, "Ġfrequ": 3656, "Ġbudget": 3657, "Ġsafety": 3658, "set": 3659, "Ġfit": 3660, "Ġreach": 3661, "olute": 3662, "Ġfeed": 3663, "rences": 3664, "Ġstatement": 3665, "ĠAdd": 3666, "ald": 3667, "Ġoffered": 3668, "Ġthrow": 3669, "ĠSpr": 3670, "Ġ29": 3671, "Ġdisapp": 3672, "Ġrelative": 3673, "Ġdefense": 3674, "Ġphysical": 3675, "Ġindepend": 3676, "Ġlanguage": 3677, "ĠGeneral": 3678, "spect": 3679, "Ġeat": 3680, "Ġgone": 3681, "ĠRiver": 3682, "ĠGreat": 3683, "berg": 3684, "Ġarch": 3685, "ports": 3686, "Ġmodern": 3687, "Ġfully": 3688, "Ġorganization": 3689, "Ġgrowing": 3690, "Ġcelebr": 3691, "Not": 3692, "wide": 3693, "Ġnames": 3694, "iled": 3695, "ĠPost": 3696, "ĠInst": 3697, "ĠFlorida": 3698, "?\"": 3699, "Ġter": 3700, "inter": 3701, "rees": 3702, "ales": 3703, "ĠAre": 3704, "ĠOther": 3705, "ĠYear": 3706, "Ġimpress": 3707, "Ġlocation": 3708, "ĠResearch": 3709, "ĠSmith": 3710, "Ġlearning": 3711, "Ġfather": 3712, "Ġlif": 3713, "ĠCle": 3714, "ĠMicro": 3715, "Ġdemon": 3716, "Ġ2005": 3717, "Ġcomplex": 3718, "isco": 3719, "Ġbeginning": 3720, "Ġpiece": 3721, "Ġeffort": 3722, "ĠAND": 3723, "house": 3724, "ios": 3725, "ipped": 3726, "rast": 3727, "nded": 3728, "roy": 3729, "ĠPR": 3730, "Ġconvers": 3731, "rive": 3732, "Ġguess": 3733, "Ġpassed": 3734, "Ġglobal": 3735, "Ar": 3736, "iers": 3737, "press": 3738, "ĠIraq": 3739, "ĠSam": 3740, "Ġstock": 3741, "Ġextend": 3742, "ocks": 3743, "Ġ60": 3744, "ĠAnge": 3745, "Ġpurchase": 3746, "vant": 3747, "het": 3748, "Ġfirm": 3749, "iced": 3750, "Ġimages": 3751, "Ġattract": 3752, "Ġacqu": 3753, "Ġinsp": 3754, "okes": 3755, "Ġphotos": 3756, "):": 3757, ");": 3758, "49": 3759, "BS": 3760, "itz": 3761, "aled": 3762, "Ġinform": 3763, "Ġhum": 3764, "Ġgas": 3765, "antic": 3766, "Ġspot": 3767, "Ġspirit": 3768, "Ġserve": 3769, "ĠChristian": 3770, "Ġcertainly": 3771, "ĠDVD": 3772, "31": 3773, "Ġwild": 3774, "ĠLake": 3775, "ĠEven": 3776, "osure": 3777, "Ġactive": 3778, "ĠProgram": 3779, "Ġpurpose": 3780, "Ġskills": 3781, "ifying": 3782, "Ġefforts": 3783, "CE": 3784, "ius": 3785, "mm": 3786, "uing": 3787, "rey": 3788, "Ġmap": 3789, "Ġmobile": 3790, "Ġload": 3791, "ager": 3792, "duc": 3793, "Ġretail": 3794, "Ġphoto": 3795, "Now": 3796, "Ġfuel": 3797, "Ġdry": 3798, "amily": 3799, "ĠMex": 3800, "ĠBook": 3801, "ĠOut": 3802, "Ġbrother": 3803, "Ġmanager": 3804, "hu": 3805, "Ġble": 3806, "Ġmount": 3807, "Ġstories": 3808, "ĠBig": 3809, "Ġwhatever": 3810, "iller": 3811, "osing": 3812, "Ġoverall": 3813, "Ġemployees": 3814, "Ġactivity": 3815, "ĠWindows": 3816, "Ġstraight": 3817, "Ġappropriate": 3818, "\",": 3819, "BC": 3820, "hold": 3821, "mark": 3822, "Ġri": 3823, "itiz": 3824, "Ġbank": 3825, "Ġpen": 3826, "ĠAir": 3827, "ĠCong": 3828, "usband": 3829, "Ġcompon": 3830, "Ġ2004": 3831, "hens": 3832, "Ġobv": 3833, "Ġpaid": 3834, "amm": 3835, "estival": 3836, "Ġ31": 3837, "Ġmedic": 3838, "Ġpromot": 3839, "Ġhappened": 3840, "Ġeye": 3841, "OW": 3842, "Ġfat": 3843, "Ġliter": 3844, "ĠTime": 3845, "Ġstage": 3846, "Ġaren": 3847, "antly": 3848, "Ġarm": 3849, "Ġarrest": 3850, "Ġrock": 3851, "ĠTechn": 3852, "More": 3853, "la": 3854, "omb": 3855, "Ġgold": 3856, "ĠCait": 3857, "Ġcharges": 3858, "cellent": 3859, "Ġcandid": 3860, "Ġir": 3861, "Ġpath": 3862, "ĠTO": 3863, "owl": 3864, "ĠPublic": 3865, "ĠPlan": 3866, "Ġpositive": 3867, "useum": 3868, "100": 3869, "cious": 3870, "ha": 3871, "Ġtrou": 3872, "chan": 3873, "usion": 3874, "Ġprices": 3875, "undred": 3876, "Ġserious": 3877, "ĠEuropean": 3878, "Ġbottom": 3879, "orial": 3880, "omew": 3881, "ĠWil": 3882, "ĠInter": 3883, "Ġtrade": 3884, "ĠLeague": 3885, "ĠGovern": 3886, "Ġpo": 3887, "Ġdat": 3888, "ĠMain": 3889, "term": 3890, "ĠHen": 3891, "using": 3892, "Ġcancer": 3893, "Ġdoll": 3894, "bert": 3895, "Ġseeing": 3896, "Ġfootball": 3897, "ĠMichael": 3898, "ĠCaitanya": 3899, "Ġpoor": 3900, "ĠMal": 3901, "Ġwel": 3902, "Ġhair": 3903, "ĠFound": 3904, "ĠLet": 3905, "Ġaltern": 3906, "Ġkilled": 3907, "ĠStar": 3908, "Ġrelig": 3909, "ĠServer": 3910, "Ġinnov": 3911, "SP": 3912, "Ġer": 3913, "Ġstreet": 3914, "irgin": 3915, "ĠGold": 3916, "Ġaccur": 3917, "encies": 3918, "Ġminor": 3919, "Ġeffects": 3920, "Ġsleep": 3921, "ĠRobert": 3922, "Ġcold": 3923, "orney": 3924, "Ġdire": 3925, "Ġhun": 3926, "ĠSl": 3927, "ĠHel": 3928, "istics": 3929, "Ġsecret": 3930, "Ġhighly": 3931, "Ġfollowed": 3932, "ĠChristmas": 3933, "Ġeconomy": 3934, "ĠSystem": 3935, "Ġreduce": 3936, "miss": 3937, "za": 3938, "Ġhous": 3939, "rial": 3940, "ube": 3941, "order": 3942, "Ġindividuals": 3943, "ĠDirector": 3944, "ror": 3945, "Ġcaught": 3946, "Ġpages": 3947, "ette": 3948, "umn": 3949, "Ġjump": 3950, "Ġspread": 3951, "Ġknows": 3952, "Ġassess": 3953, "Ġfamilies": 3954, "Ġfeeling": 3955, "Ġincreased": 3956, "iverse": 3957, "Ġcharacters": 3958, "ĠDemocr": 3959, "Ġahead": 3960, "edy": 3961, "Ġden": 3962, "ĠSite": 3963, "Ġyards": 3964, "oles": 3965, "Ġnotes": 3966, "Ġalone": 3967, "Ġblue": 3968, "Ġfourth": 3969, "ĠIndian": 3970, "Ġpopulation": 3971, "Ġmiles": 3972, "ket": 3973, "erry": 3974, "Ġhusband": 3975, "ĠCamp": 3976, "rie": 3977, "Ġcommercial": 3978, "Ġvoice": 3979, "Ġplaced": 3980, "Ġuns": 3981, "Ġmarketing": 3982, "Ġmoving": 3983, "Ġbasic": 3984, "Ġpressure": 3985, "ĠGeorge": 3986, "Ġmeasure": 3987, "Ġnormal": 3988, "aith": 3989, "with": 3990, "Ġ=": 3991, "arian": 3992, "Ġdream": 3993, "Ġdaily": 3994, "Ġren": 3995, "Ġrepe": 3996, "ĠAlex": 3997, "Ġund": 3998, "ĠMac": 3999, "ĠMart": 4000, "Ġjun": 4001, "Ġadvice": 4002, "Ġfunds": 4003, "90": 4004, "arant": 4005, "Ġgar": 4006, "Ġbeg": 4007, "ĠAnt": 4008, "ĠCup": 4009, "ĠJes": 4010, "Ġenh": 4011, "Ġspring": 4012, "ervation": 4013, "coming": 4014, "Ġconsult": 4015, "ĠFranc": 4016, "Ġdiscussion": 4017, "Ġdescribed": 4018, "Ġleaves": 4019, "34": 4020, "BA": 4021, "Please": 4022, "Ġ+": 4023, "inn": 4024, "atform": 4025, "ĠBrown": 4026, "Ġhaven": 4027, "ĠHot": 4028, "ĠFe": 4029, "Ġadvert": 4030, "ĠWhy": 4031, "Ġadvant": 4032, "Ġdistrict": 4033, "Ġinvestment": 4034, "Ġsolid": 4035, "Ġdevices": 4036, "Ġhighest": 4037, "Ġoptim": 4038, "ĠCompany": 4039, "Ġdamage": 4040, "55": 4041, "RA": 4042, "ying": 4043, "Ġwarm": 4044, "ĠCr": 4045, "ustain": 4046, "ocal": 4047, "Ġapply": 4048, "ĠProject": 4049, "Ġopening": 4050, "Here": 4051, "Ġabsolute": 4052, "Ġrevenue": 4053, "ĠST": 4054, "add": 4055, "ushed": 4056, "ĠGet": 4057, "ruit": 4058, "Ġprinc": 4059, "Ġcalls": 4060, "Ġtransport": 4061, "Ġbiggest": 4062, "Ġwrite": 4063, "Ġsuccessful": 4064, "ĠBoard": 4065, "Ġcompetition": 4066, "Ġdemand": 4067, "Ġdefinitely": 4068, "men": 4069, "ties": 4070, "edia": 4071, "Ġtowards": 4072, "Ġhospital": 4073, "lements": 4074, "oms": 4075, "ĠTom": 4076, "ĠBay": 4077, "ĠRob": 4078, "Ġship": 4079, "ĠKr": 4080, "ĠYes": 4081, "Ġproduced": 4082, "hips": 4083, "Ġrap": 4084, "Ġleader": 4085, "ĠPhil": 4086, "Ġestablish": 4087, "Ġaim": 4088, "reci": 4089, "ero": 4090, "iling": 4091, "ancy": 4092, "Ġrecords": 4093, "ength": 4094, "ĠAfrican": 4095, "Ġheavy": 4096, "Ġopinion": 4097, "SA": 4098, "fit": 4099, "range": 4100, "ado": 4101, "ĠMod": 4102, "Ġheat": 4103, "ĠBre": 4104, "ĠHist": 4105, "ĠRel": 4106, "ulated": 4107, "ĠLou": 4108, "ĠGood": 4109, "ĠEduc": 4110, "Ġsugar": 4111, "Ġfinished": 4112, "Ġowners": 4113, "ĠClub": 4114, "ĠEngland": 4115, "Phone": 4116, "Is": 4117, "OC": 4118, "cont": 4119, "Ġ>": 4120, "Ġaware": 4121, "Ġfol": 4122, "ĠBen": 4123, "Ġvote": 4124, "Ġresidents": 4125, "Ġsurface": 4126, "Ġreflect": 4127, "Ġopportunities": 4128, "Ġdefend": 4129, "Ġstrugg": 4130, "!âĢĿ": 4131, "Le": 4132, "pre": 4133, "part": 4134, "Ġ@": 4135, "Ġwat": 4136, "Ġbra": 4137, "Ġmur": 4138, "change": 4139, "ĠBel": 4140, "ĠRock": 4141, "ĠInformation": 4142, "Ġearth": 4143, "Ġmodels": 4144, "----": 4145, "Ġbasis": 4146, "Ġmeaning": 4147, "Ġcondition": 4148, "ography": 4149, "Ġseparate": 4150, "ĠCongress": 4151, "Ġtournament": 4152, "Ġwine": 4153, "Ġbirth": 4154, "Ġhundred": 4155, "outhern": 4156, "place": 4157, "Ġcommit": 4158, "Ġplanning": 4159, "Ġopened": 4160, "Ġlarger": 4161, "Ġsociety": 4162, "porate": 4163, "ĠMicrosoft": 4164, "ech": 4165, "ken": 4166, "Ġcast": 4167, "state": 4168, "ĠAtt": 4169, "ĠMat": 4170, "ĠBill": 4171, "ĠFTL": 4172, "Ġselection": 4173, "ulate": 4174, "ĠKn": 4175, "Ġgoals": 4176, "Ġspending": 4177, "Ġnovel": 4178, "rowd": 4179, "Ġproduce": 4180, "Ġsmart": 4181, "Ġentry": 4182, "Ġentertain": 4183, "ĠDef": 4184, "ployment": 4185, "Ġcontinued": 4186, "Ġlargest": 4187, "Ġincreasing": 4188, "Ġanalysis": 4189, "Ġjoin": 4190, "Ġsatis": 4191, "Ġachieve": 4192, "06": 4193, "35": 4194, "bon": 4195, "gl": 4196, "wor": 4197, "word": 4198, "Ġsnow": 4199, "Ġoption": 4200, "Ġcru": 4201, "Ġpet": 4202, "arks": 4203, "Ġdriving": 4204, "anta": 4205, "Ġclosed": 4206, "Ġcontains": 4207, "Ġexpand": 4208, "ĠBlue": 4209, "Ġgirls": 4210, "ĠBritish": 4211, "care": 4212, "overy": 4213, "Ġmiddle": 4214, "ica": 4215, "Ġreb": 4216, "Ġaspect": 4217, "oop": 4218, "ĠFood": 4219, "ĠLibrary": 4220, "resp": 4221, "Ġprefer": 4222, "rench": 4223, "Ġgrant": 4224, "Ġdirection": 4225, "Ne": 4226, "cher": 4227, "friend": 4228, "Ġdrop": 4229, "ĠMag": 4230, "ĠPress": 4231, "ĠFree": 4232, "Ġemb": 4233, "Ġpattern": 4234, "Ġveter": 4235, "rabhu": 4236, "Ġradio": 4237, "Ġtypes": 4238, "TH": 4239, "Un": 4240, "igation": 4241, "Ġstation": 4242, "rief": 4243, "aked": 4244, "ĠChina": 4245, "Ġseemed": 4246, "Ġofficial": 4247, "Ġmaterials": 4248, "Ġpiano": 4249, "75": 4250, "Last": 4251, "Ġcatch": 4252, "icago": 4253, "ĠTop": 4254, "ĠWall": 4255, "Ġtrust": 4256, "rupt": 4257, "Ġworkers": 4258, "Ġsubsc": 4259, "Ġhelped": 4260, "Ġwinning": 4261, "Ġobtain": 4262, "ĠOnce": 4263, "Ġappears": 4264, "Ġlaunch": 4265, "Ġpictures": 4266, "ademic": 4267, "Con": 4268, "ls": 4269, "uke": 4270, "Ġmail": 4271, "oma": 4272, "Ġreached": 4273, "ĠSun": 4274, "adium": 4275, "uled": 4276, "ears": 4277, "Ġplus": 4278, "ĠInstitute": 4279, "enses": 4280, "Ġ2003": 4281, "Ġremains": 4282, "Ġhelps": 4283, "ĠDevelop": 4284, "Ġglass": 4285, "ĠApple": 4286, "ENT": 4287, "ĠTwitter": 4288, "ĠEarth": 4289, "lim": 4290, "Ġing": 4291, "Ġsources": 4292, "Ġexerc": 4293, "Ġthanks": 4294, "Ġactual": 4295, "Ġrare": 4296, "standing": 4297, "Ġdeliver": 4298, "Ġreturned": 4299, "Ġtraditional": 4300, "Ġsweet": 4301, "kins": 4302, "Â®": 4303, "Ġmission": 4304, "Ġgift": 4305, "ĠSal": 4306, "ady": 4307, "ĠBob": 4308, "ĠRoad": 4309, "acks": 4310, "ĠChurch": 4311, "Ġtraffic": 4312, "Ġowner": 4313, "ĠAny": 4314, "fortun": 4315, "Ġanaly": 4316, "Ġexisting": 4317, "UR": 4318, "heimer": 4319, "Ġsomew": 4320, "Ġfem": 4321, "ĠMary": 4322, "Ġprot": 4323, "Ġmechan": 4324, "ooking": 4325, "Ġ2015": 4326, "aving": 4327, "Ġkept": 4328, "Ġsurround": 4329, "Ġexplain": 4330, "ĠCarol": 4331, "Ġbenefit": 4332, "burg": 4333, "36": 4334, "EM": 4335, "gal": 4336, "aling": 4337, "Ġmouth": 4338, "Ġluck": 4339, "amin": 4340, "olic": 4341, "Ġweap": 4342, "aprabhu": 4343, "inder": 4344, "Ġappoint": 4345, "igned": 4346, "Ġscen": 4347, "Ġcommission": 4348, "Ġuseful": 4349, "Ġadvance": 4350, "Ġoccas": 4351, "Ġprotection": 4352, "Ġmentioned": 4353, "ĠMahaprabhu": 4354, "**": 4355, "Ġsale": 4356, "Ġbaby": 4357, "Ġonto": 4358, "Ġbackground": 4359, "Ġ2000": 4360, "ocked": 4361, "Ġreality": 4362, "Ġhealthy": 4363, "Ġbasket": 4364, "Ġaudio": 4365, "Ġregarding": 4366, "09": 4367, "Bl": 4368, "OD": 4369, "ront": 4370, "Ġforum": 4371, "ĠPower": 4372, "Ġnotice": 4373, "Ġsports": 4374, "Ġparties": 4375, "Ġinstruct": 4376, "Ġavoid": 4377, "Ġcompleted": 4378, "Ġbehav": 4379, "Ġstores": 4380, "Ġselected": 4381, "Ġdegree": 4382, "esterday": 4383, "dom": 4384, "lor": 4385, "ari": 4386, "ĠRem": 4387, "odes": 4388, "Ġresist": 4389, "Ġincome": 4390, "Ġsetting": 4391, "Ġdeveloping": 4392, "Ġeasier": 4393, "Ġconstit": 4394, "ĠHenry": 4395, "03": 4396, "08": 4397, "Ab": 4398, "PR": 4399, "orrow": 4400, "Ġbrows": 4401, "Ġpool": 4402, "Ġdinner": 4403, "ĠSub": 4404, "ĠPet": 4405, "Ġrich": 4406, "Ġshop": 4407, "ango": 4408, "ĠReview": 4409, "Ġstarts": 4410, "Ġcrim": 4411, "Ġcentury": 4412, "Ġreviews": 4413, "Ġclearly": 4414, "ĠCanada": 4415, "Ġdemonstr": 4416, "rick": 4417, "Ġfarm": 4418, "that": 4419, "Ġexhib": 4420, "ĠOver": 4421, "ipal": 4422, "ĠVirgin": 4423, "well": 4424, "Ġflu": 4425, "Ġstudies": 4426, "Ġfilms": 4427, "Ġgenerally": 4428, "Ġcreating": 4429, "Ġwatching": 4430, "secut": 4431, "ĠOhio": 4432, "Ġneighbor": 4433, "ĠDistrict": 4434, "47": 4435, "bing": 4436, "opped": 4437, "Ġwood": 4438, "itors": 4439, "Ġborn": 4440, "Ġthus": 4441, "ura": 4442, "Ġexcellent": 4443, "Ġkid": 4444, "ĠYOU": 4445, "Ġapparent": 4446, "oves": 4447, "Ġslight": 4448, "ĠAmericans": 4449, "Ġstandards": 4450, "Ġoccup": 4451, "2012": 4452, "ĠMedic": 4453, "Ġsteps": 4454, "Ġchallenge": 4455, "Ġdigital": 4456, "ocolate": 4457, "Pl": 4458, "net": 4459, "Ġharm": 4460, "entially": 4461, "ĠSand": 4462, "ĠAv": 4463, "Ġsem": 4464, "Ġclient": 4465, "Ġagency": 4466, "phone": 4467, "Ġexpert": 4468, "Ġcream": 4469, "Ġhappens": 4470, "Ġperformed": 4471, "Ġmovement": 4472, "Ġanimals": 4473, "Ġcells": 4474, "itchen": 4475, "38": 4476, "Com": 4477, "mail": 4478, "pm": 4479, "Ġign": 4480, "Ġdom": 4481, "Ġgra": 4482, "ĠDet": 4483, "ĠFun": 4484, "Ġrank": 4485, "ĠGrand": 4486, "osition": 4487, "Ġplatform": 4488, "Ġkill": 4489, "Ġadop": 4490, "Ġunless": 4491, "Ġfinding": 4492, "Ġmonitor": 4493, "Ġmemory": 4494, "Ġdepartment": 4495, "ĠManagement": 4496, "ĠÂ£": 4497, "Ġagreement": 4498, "Ġculture": 4499, "Ġassociated": 4500, "Ġcamera": 4501, "Ġadvantage": 4502, "ij": 4503, "noon": 4504, "tr": 4505, "atically": 4506, "Ġexclus": 4507, "ĠEv": 4508, "ustr": 4509, "odies": 4510, "Ġclot": 4511, "Ġapprox": 4512, "Ġprocessing": 4513, "Ġkeeping": 4514, "Ġunderstanding": 4515, "Ġmulti": 4516, "48": 4517, "gency": 4518, "ooth": 4519, "Ġice": 4520, "Ġcrowd": 4521, "esome": 4522, "Ġfra": 4523, "uty": 4524, "ota": 4525, "sey": 4526, "unte": 4527, "ĠNov": 4528, "Ġnoted": 4529, "ĠThanks": 4530, "ĠVis": 4531, "Ġdespite": 4532, "ologies": 4533, "ashion": 4534, "Ġcontinues": 4535, "ĠIsland": 4536, "Ġesc": 4537, "Ġupdate": 4538, "iliar": 4539, "Ġleaving": 4540, "37": 4541, "500": 4542, "DA": 4543, "PS": 4544, "Ġtree": 4545, "Ġreasons": 4546, "alls": 4547, "Ġclients": 4548, "Ġappreci": 4549, "Ġ48": 4550, "Ġcommunities": 4551, "Ġpatient": 4552, "annel": 4553, "ĠAtl": 4554, "Ġrelevant": 4555, "Ġclaims": 4556, "Ġcritical": 4557, "Ġanimal": 4558, "De": 4559, "ses": 4560, "ĠSince": 4561, "Ġweather": 4562, "ideos": 4563, "Ġtruly": 4564, "ĠProduct": 4565, "Ġcris": 4566, "Ġrefer": 4567, "Ġestim": 4568, "sych": 4569, "ĠSocial": 4570, "UT": 4571, "den": 4572, "zheimer": 4573, "Ġtoward": 4574, "Ġmax": 4575, "ĠBecause": 4576, "Ġwear": 4577, "Ġseed": 4578, "dule": 4579, "ĠVol": 4580, "porary": 4581, "Ġteacher": 4582, "Ġorganizations": 4583, "CL": 4584, "life": 4585, "met": 4586, "Ġfant": 4587, "Ġdaughter": 4588, "Ġliber": 4589, "ĠTor": 4590, "ĠMont": 4591, "ĠWork": 4592, "ĠiPhone": 4593, "ĠJohnson": 4594, "Ġsuppl": 4595, "which": 4596, "ĠValley": 4597, "ĠMexico": 4598, "95": 4599, "kn": 4600, "kin": 4601, "no": 4602, "Ġtun": 4603, "Ġpun": 4604, "arp": 4605, "Ġnor": 4606, "ula": 4607, "ĠLife": 4608, "Ġrates": 4609, "Ġrule": 4610, "ĠJournal": 4611, "ĠUK": 4612, "Ġadjust": 4613, "Ġwinner": 4614, "Ġlots": 4615, "ĠScott": 4616, "ĠMcC": 4617, "Ġreplace": 4618, "ita": 4619, "orry": 4620, "arge": 4621, "Ġmist": 4622, "Ġdanger": 4623, "ĠSur": 4624, "ĠAT": 4625, "Ġstream": 4626, "ivision": 4627, "Ġdoctor": 4628, "Ġmeant": 4629, "ipes": 4630, "ĠChicago": 4631, "Ġscored": 4632, "anging": 4633, "ĠAlzheimer": 4634, "While": 4635, "ronic": 4636, "Ġconstruction": 4637, "Ġtemper": 4638, "Ġenvironmental": 4639, "Ġepis": 4640, "ĠJeff": 4641, "Ġindependent": 4642, "Don": 4643, "IA": 4644, "gn": 4645, "ship": 4646, "asure": 4647, "ĠTimes": 4648, "igan": 4649, "illa": 4650, "Ġprospect": 4651, "ĠHuman": 4652, "ores": 4653, "istry": 4654, "ĠNOT": 4655, "Ġsubst": 4656, "Ġasking": 4657, "ĠColor": 4658, "Ġdrink": 4659, "Ġprofession": 4660, "levision": 4661, "Ġwonderful": 4662, "Oh": 4663, "orter": 4664, "asp": 4665, "vere": 4666, "Ġgain": 4667, "ads": 4668, "ĠDel": 4669, "Ġconcent": 4670, "These": 4671, "Ġoffering": 4672, "ĠIndia": 4673, "ĠCentral": 4674, "while": 4675, "FA": 4676, "NA": 4677, "vin": 4678, "Ġâ": 4679, "iner": 4680, "Ġcash": 4681, "Ġcovered": 4682, "ishes": 4683, "Ġmer": 4684, "ĠId": 4685, "ĠUse": 4686, "Ġotherwise": 4687, "Ġconsid": 4688, "Ġended": 4689, "Ġwinter": 4690, "ĠEngine": 4691, "Ġdriver": 4692, "Ġaudience": 4693, "Ġmissing": 4694, "Ġexcited": 4695, "ĠDesign": 4696, "Ġstrength": 4697, "32": 4698, "FT": 4699, "IR": 4700, "gu": 4701, "Ġcitiz": 4702, "Ġloved": 4703, "Ġnut": 4704, "acity": 4705, "ulf": 4706, "Ġnewsp": 4707, "ĠEducation": 4708, "EC": 4709, "free": 4710, "last": 4711, "vention": 4712, "Ġthr": 4713, "ĠIT": 4714, "ĠAri": 4715, "ĠFamily": 4716, "Ġvirt": 4717, "ĠJim": 4718, "outs": 4719, "Ġtherefore": 4720, "Ġpeace": 4721, "olly": 4722, "Ġguide": 4723, "Ġconnection": 4724, "Ġdetermine": 4725, "Ġconnected": 4726, "ĠScience": 4727, "ĠLouis": 4728, "inct": 4729, "inem": 4730, "Ġcounter": 4731, "Ġcivil": 4732, "oman": 4733, "Ġnine": 4734, "ĠSum": 4735, "ĠBest": 4736, "Ġtransfer": 4737, "ĠOnline": 4738, "Ġpresented": 4739, "Ġlimit": 4740, "opyright": 4741, "nel": 4742, "ician": 4743, "Ġthread": 4744, "ented": 4745, "Ġlibrary": 4746, "ĠTre": 4747, "ĠHill": 4748, "ategy": 4749, "ĠEach": 4750, "plic": 4751, "Ġtend": 4752, "reek": 4753, "Ġprec": 4754, "Ġrob": 4755, "ĠWho": 4756, "Ġseconds": 4757, "Ġmovies": 4758, "Ġcaused": 4759, "Ġstatus": 4760, "Ġhomes": 4761, "Ġteachers": 4762, "Ġexecutive": 4763, "ĠUtah": 4764, "OP": 4765, "Some": 4766, "gment": 4767, "upp": 4768, "itude": 4769, "Ġfab": 4770, "ĠIP": 4771, "ĠCare": 4772, "iler": 4773, "ĠLand": 4774, "Ġleague": 4775, "berley": 4776, "Ġspend": 4777, "Ġafternoon": 4778, "ĠFrank": 4779, "Ġsmaller": 4780, "going": 4781, "iest": 4782, "ivery": 4783, "top": 4784, "yan": 4785, "ĠTenn": 4786, "ĠMot": 4787, "ifts": 4788, "Ġplays": 4789, "roud": 4790, "ĠChamp": 4791, "Ġ45": 4792, "ĠUnion": 4793, "Ġsets": 4794, "Ġtransl": 4795, "Ġclassic": 4796, "Ġlearned": 4797, "Ġestablished": 4798, "Ġdoubt": 4799, "96": 4800, "From": 4801, "ris": 4802, "Ġtack": 4803, "Ġfif": 4804, "Ġlinks": 4805, "idel": 4806, "urrent": 4807, "oston": 4808, "ĠVe": 4809, "Ġ196": 4810, "ancing": 4811, "ellow": 4812, "Ġrequires": 4813, "Ġeditor": 4814, "Ġlisten": 4815, "Ġolder": 4816, "ĠTech": 4817, "box": 4818, "Ġholding": 4819, "Ġpackage": 4820, "Ġrequirements": 4821, "ĠAgency": 4822, "ĠPeople": 4823, "Ġchampions": 4824, "Ġextremely": 4825, "02": 4826, "04": 4827, "SS": 4828, "isher": 4829, "icians": 4830, "Ġlength": 4831, "ros": 4832, "ĠGame": 4833, "Ġeval": 4834, "Ġunit": 4835, "Ġsched": 4836, "grad": 4837, "Ġpresence": 4838, "Why": 4839, "related": 4840, "Ġthousands": 4841, "ĠFoundation": 4842, "ĠJesus": 4843, "42": 4844, "Just": 4845, "Me": 4846, "mond": 4847, "Ġsouth": 4848, "Ġpair": 4849, "Ġtow": 4850, "ste": 4851, "ayne": 4852, "aming": 4853, "ĠBur": 4854, "ĠRad": 4855, "Ġven": 4856, "ĠOper": 4857, "ĠJose": 4858, "Ġ36": 4859, "Ġevening": 4860, "Ġcounty": 4861, "Ġlisted": 4862, "Ġtechnical": 4863, "Ġsolution": 4864, "Ġresearc": 4865, "ĠAfrica": 4866, "Ġcollabor": 4867, "Ġafford": 4868, "Ġdrug": 4869, "FL": 4870, "Fr": 4871, "how": 4872, "ka": 4873, "Ġwed": 4874, "Ġbath": 4875, "Ġbrain": 4876, "acle": 4877, "cel": 4878, "ĠLos": 4879, "Ġshut": 4880, "Ġjournal": 4881, "âĢĿ.": 4882, "Ġcompared": 4883, "ĠWeek": 4884, "Ġ2002": 4885, "Ġhelping": 4886, "2011": 4887, "Ġforeign": 4888, "Ġfailed": 4889, "Ġbecomes": 4890, "Qu": 4891, "point": 4892, "yl": 4893, "zen": 4894, "Ġforget": 4895, "amic": 4896, "ĠPenn": 4897, "ĠBer": 4898, "ĠDj": 4899, "Ġvir": 4900, "alled": 4901, "Ġdog": 4902, "itect": 4903, "Ġspecies": 4904, "Ġserver": 4905, "ĠCommunity": 4906, "Ġpowerful": 4907, "ĠMedia": 4908, "Ġidentified": 4909, "Ġcircum": 4910, "Ġsuspect": 4911, "ĠRepublican": 4912, "Ġadministr": 4913, "Do": 4914, "eah": 4915, "rd": 4916, "orage": 4917, "Ġbatter": 4918, "Ġbattle": 4919, "Ġfurn": 4920, "Ġfilled": 4921, "lear": 4922, "ĠCP": 4923, "ĠRet": 4924, "ĠJul": 4925, "Ġquiet": 4926, "Ġaccom": 4927, "Ġconfidence": 4928, "ĠUSA": 4929, "Ġvalues": 4930, "Ġoperating": 4931, "ĠTwo": 4932, "ĠParty": 4933, "Ġcombined": 4934, "Ġinvestigation": 4935, "Ġarrived": 4936, "fortunately": 4937, ".'": 4938, "44": 4939, "bre": 4940, "ii": 4941, "ĠSing": 4942, "ĠCub": 4943, "ctors": 4944, "Ġhearing": 4945, "chol": 4946, "ĠâĢ¦": 4947, "ĠUN": 4948, "fee": 4949, "Ġtruth": 4950, "Ġdisp": 4951, "icken": 4952, "encing": 4953, "inese": 4954, "Ġconfirm": 4955, "gypt": 4956, "Ġwindow": 4957, "Ġjoined": 4958, "Ġiniti": 4959, "Ġtickets": 4960, "Ġprimary": 4961, "Ad": 4962, "EW": 4963, "west": 4964, "inals": 4965, "Ġbrief": 4966, "Ġfaith": 4967, "ingly": 4968, "Ġrefe": 4969, "oto": 4970, "ĠPri": 4971, "anda": 4972, "apers": 4973, "Ġclin": 4974, "Ġcolle": 4975, "Ġraised": 4976, "ception": 4977, "Ġsigned": 4978, "ĠStep": 4979, "Ġspecifically": 4980, "respond": 4981, "Ġingred": 4982, "05": 4983, "Ġspl": 4984, "Ġcert": 4985, "text": 4986, "ĠUnder": 4987, "aren": 4988, "Ġshowing": 4989, "ĠChris": 4990, "EST": 4991, "Ġupdates": 4992, "Ġdiagn": 4993, "Ġboys": 4994, "ĠJackson": 4995, "Ġmanufacture": 4996, "ĠVirginia": 4997, "300": 4998, "OV": 4999, "Well": 5000, "ga": 5001, "iel": 5002, "kes": 5003, "kay": 5004, "rehens": 5005, "alog": 5006, "icon": 5007, "Ġstick": 5008, "osen": 5009, "ĠJer": 5010, "ansas": 5011, "Ġprison": 5012, "cluding": 5013, "ossible": 5014, "Ġnumer": 5015, "Ġcharged": 5016, "Ġputting": 5017, "Ġmenu": 5018, "okemon": 5019, "Ġdocuments": 5020, "Ġrestaurant": 5021, "oin": 5022, "Ġton": 5023, "hether": 5024, "Ġwire": 5025, "Ġcities": 5026, "Ġmental": 5027, "Ġhar": 5028, "icip": 5029, "Ġstated": 5030, "ĠWater": 5031, "Ġkick": 5032, "Ġagreed": 5033, "Ġunf": 5034, "ordin": 5035, "Ġdetect": 5036, "Ġinterests": 5037, "ĠTeam": 5038, "Ġpreviously": 5039, "Ġconcerned": 5040, "Ġmethods": 5041, "Ġprepared": 5042, "Ġdedicated": 5043, "07": 5044, "MS": 5045, "QL": 5046, "__": 5047, "cks": 5048, "Ġcry": 5049, "Ġelements": 5050, "ĠCD": 5051, "Ġforms": 5052, "ĠMount": 5053, "ĠNav": 5054, "umber": 5055, "orthern": 5056, "Ġplants": 5057, "Ġpartner": 5058, "Ġemot": 5059, "Ġacademic": 5060, "Ġtopic": 5061, "Ġsolutions": 5062, "Any": 5063, "Ġanti": 5064, "ĠSociety": 5065, "ĠKimberley": 5066, "88": 5067, "Americ": 5068, "can": 5069, "wo": 5070, "Ġtaste": 5071, "Ġsand": 5072, "ĠTerm": 5073, "ĠPokemon": 5074, "ĠWood": 5075, "abilities": 5076, "que": 5077, "Ġchair": 5078, "Ġdecide": 5079, "Ġdecisions": 5080, "ĠOrgan": 5081, "ATION": 5082, "Ġeventually": 5083, "Ġsupposed": 5084, "Ġsounds": 5085, "dden": 5086, "Ġpieces": 5087, "See": 5088, "pret": 5089, "ym": 5090, "Ġbat": 5091, "Ġbought": 5092, "lla": 5093, "ĠSU": 5094, "ĠSar": 5095, "otic": 5096, "ĠMil": 5097, "Ġwhom": 5098, "ĠTheir": 5099, "ĠOld": 5100, "ivan": 5101, "Ġfamiliar": 5102, "Ġcorner": 5103, "ĠConference": 5104, "Ġdraft": 5105, "Ġresponsibility": 5106, "Ġwaiting": 5107, "Ġleadership": 5108, "Ġabsolutely": 5109, "Tr": 5110, "Ġpitch": 5111, "ĠTy": 5112, "ĠMany": 5113, "Ġvs": 5114, "Ġsuff": 5115, "Ġplenty": 5116, "Ġkitchen": 5117, "ĠThom": 5118, "Ġuniversity": 5119, "ildren": 5120, "ribe": 5121, "Ġ90": 5122, "Ġhonest": 5123, "Ġcommunication": 5124, "Ġperspect": 5125, "ĠAngeles": 5126, "ĠGovernment": 5127, "Ġrapid": 5128, "Ġaccompl": 5129, "Che": 5130, "Get": 5131, "lo": 5132, "van": 5133, "Ġtro": 5134, "Ġcars": 5135, "icing": 5136, "ĠNor": 5137, "Ġran": 5138, "ĠOS": 5139, "Ġtelevision": 5140, "Ġ35": 5141, "Ġherself": 5142, "grade": 5143, "Ġguests": 5144, "print": 5145, "Ġthoughts": 5146, "Ġadvanced": 5147, "Ġmarkets": 5148, "Ġarticles": 5149, "iques": 5150, "Ġcombination": 5151, "Ġfailure": 5152, "Ġvehicle": 5153, "39": 5154, "76": 5155, "??": 5156, "According": 5157, "II": 5158, "Ġsitting": 5159, "Ġsustain": 5160, "Ġbike": 5161, "Ġfear": 5162, "Ġmicro": 5163, "Ġelev": 5164, "Ġgraph": 5165, "ĠSol": 5166, "ĠTri": 5167, "Ġyesterday": 5168, "imal": 5169, "ĠMen": 5170, "ĠWestern": 5171, "Ġsequ": 5172, "ĠRuss": 5173, "Ġchief": 5174, "avor": 5175, "Ġspokes": 5176, "Ġintended": 5177, "Ġminute": 5178, "Ġsurvey": 5179, "Ġearn": 5180, "Ġchem": 5181, "ĠSoft": 5182, "ALL": 5183, "Ġmanaged": 5184, "ĠProfess": 5185, "ĠAustralia": 5186, "oices": 5187, "uated": 5188, "anish": 5189, "stances": 5190, "ĠToday": 5191, "Ġrural": 5192, "Ġsudden": 5193, "ĠJoe": 5194, "ava": 5195, "Ġbrings": 5196, "ciples": 5197, "ĠShow": 5198, "ĠAdminist": 5199, "Ġinteract": 5200, "Ġstrateg": 5201, "Ġcrime": 5202, "ERS": 5203, "Ġpurs": 5204, "Ġdelivery": 5205, "ommod": 5206, "Ġfunding": 5207, "Ġmotion": 5208, "Ġtouchdown": 5209, "Ġrental": 5210, "EE": 5211, "eed": 5212, "ram": 5213, "Ġelection": 5214, "ĠBoston": 5215, "ĠNar": 5216, "Ġshipping": 5217, "Ġchocolate": 5218, "tered": 5219, "Ġoutd": 5220, "Ġtele": 5221, "Ġtruck": 5222, "Ġdiss": 5223, "Ġadding": 5224, "Ġrain": 5225, "Ġfacilities": 5226, "!!!": 5227, "ĠEnter": 5228, "ĠSenate": 5229, "Ġproposal": 5230, "Ġwelcome": 5231, "Ġjunior": 5232, "Ġcriminal": 5233, "46": 5234, "AV": 5235, "Feb": 5236, "Ġtap": 5237, "Ġboo": 5238, "Ġfashion": 5239, "ĠSil": 5240, "ĠTim": 5241, "ĠTown": 5242, "ada": 5243, "Ġ(\"": 5244, "ĠElect": 5245, "ĠEgypt": 5246, "Ġindex": 5247, "Ġguarant": 5248, "Ġremove": 5249, "Ġinstru": 5250, "Ġstanding": 5251, "Ġrestrict": 5252, "Ġvari": 5253, "Ġequal": 5254, "ĠSteve": 5255, "ĠÂ»": 5256, "Ġmeasures": 5257, "Ġbaseball": 5258, "Ġsexual": 5259, "Ġvolunte": 5260, "Ġadministration": 5261, "Ġawesome": 5262, "ĠDevelopment": 5263, "ĠDjango": 5264, "Yes": 5265, "gen": 5266, "Ġdu": 5267, "Ġlose": 5268, "Ġegg": 5269, "ownt": 5270, "semb": 5271, "uries": 5272, "rier": 5273, "ĠNY": 5274, "Ġju": 5275, "Ġshowed": 5276, "Ġreaders": 5277, "lands": 5278, "Ġrooms": 5279, "Ġinternal": 5280, "Ġtaxes": 5281, "Ġvictory": 5282, "Ġzone": 5283, "ĠSpecial": 5284, "Ġinjury": 5285, "Ġbecoming": 5286, "ĠGerman": 5287, "Ġwitnesses": 5288, "ĠMusic": 5289, "Ġapproximately": 5290, "bro": 5291, "water": 5292, "Ġtim": 5293, "Ġbreat": 5294, "Ġfaster": 5295, "ĠAcc": 5296, "ĠMike": 5297, "Ġstress": 5298, "ĠLast": 5299, "ems": 5300, "udd": 5301, "Ġjoint": 5302, "Ġrecipe": 5303, "ĠChinese": 5304, "Ġtwice": 5305, "Ġsyn": 5306, "Ġadvis": 5307, "Ġallowing": 5308, "Ġfactors": 5309, "2013": 5310, "Ġregistered": 5311, "Ġschedule": 5312, "ĠRichard": 5313, "Ġconversation": 5314, "Ġalternative": 5315, "85": 5316, "PL": 5317, "you": 5318, "Ĥ¬": 5319, "inch": 5320, "reens": 5321, "Ġproud": 5322, "ĠCEO": 5323, "imin": 5324, "ĠMake": 5325, "Ġstre": 5326, "ĠBack": 5327, "ĠFederal": 5328, "unning": 5329, "Ġride": 5330, "Ġbutton": 5331, "Ġthank": 5332, "Ġmostly": 5333, "Ġremind": 5334, "Ġearned": 5335, "Ġvision": 5336, "Ġformat": 5337, "Ġestate": 5338, "Ġmagazine": 5339, "Ġproposed": 5340, "ĠNetwork": 5341, "Ġid": 5342, "Ħ¢": 5343, "ora": 5344, "Ġfill": 5345, "ading": 5346, "ĠBank": 5347, "ushing": 5348, "unk": 5349, "ulty": 5350, "Ġcommitted": 5351, "phas": 5352, "Ġincor": 5353, "Ġviews": 5354, "Ġclasses": 5355, "Also": 5356, "Ġdetermined": 5357, "Ġmotor": 5358, "Ġapart": 5359, "ademy": 5360, "Ġviolence": 5361, "Ġappeared": 5362, "ĠFrancisco": 5363, "ĠCarolina": 5364, "ih": 5365, "isation": 5366, "ĠID": 5367, "ĠSqu": 5368, "ĠAP": 5369, "Ġstructure": 5370, "ĠFour": 5371, "ĠLike": 5372, "Ġrat": 5373, "Ġshared": 5374, "ĠInf": 5375, "Ġmanage": 5376, "Ġcoverage": 5377, "Ġremoved": 5378, "Ġvisual": 5379, "Ġexpensive": 5380, "Ġdistance": 5381, "Ġemployee": 5382, "arrant": 5383, "Ġpaint": 5384, "ĠCheck": 5385, "Ġapartment": 5386, "Ġimagine": 5387, "Ġsatisf": 5388, "known": 5389, "equ": 5390, "ixt": 5391, "Ġtheory": 5392, "essee": 5393, "Ġder": 5394, "Ġdomin": 5395, "Ġec": 5396, "ĠIll": 5397, "ĠCard": 5398, "ĠMer": 5399, "ĠPeter": 5400, "Ġworry": 5401, "Ġclim": 5402, "ĠView": 5403, "Ġaccommod": 5404, "Ġphil": 5405, "Ġposts": 5406, "Ġinternet": 5407, "Ġmachine": 5408, "Des": 5409, "SC": 5410, "ca": 5411, "uce": 5412, "atures": 5413, "Ġmine": 5414, "Ġlived": 5415, "ĠSearch": 5416, "verse": 5417, "Ġsty": 5418, "oos": 5419, "abet": 5420, "Ġspect": 5421, "Ġamb": 5422, "cluded": 5423, "Ġflat": 5424, "Ġkeys": 5425, "Ġcreation": 5426, "Ġoperations": 5427, "Ġannounce": 5428, "ĠGlobal": 5429, "Ġinitial": 5430, "Ġadults": 5431, "Ġrelatively": 5432, "About": 5433, "Ġslightly": 5434, "Ġconsidering": 5435, ":||": 5436, "eper": 5437, "fast": 5438, "foot": 5439, "hors": 5440, "Ġbodies": 5441, "Ġfold": 5442, "ĠIr": 5443, "irmed": 5444, "ĠWomen": 5445, "ĠFOR": 5446, "Ġsport": 5447, "Ġcommittee": 5448, "Ġflow": 5449, "Ġcolors": 5450, "Ġsignal": 5451, "Ġvalid": 5452, "Ġtrees": 5453, "Ġcircuit": 5454, "Ġcalc": 5455, "ĠOpen": 5456, "Ġparking": 5457, "Ġprocedure": 5458, "ĠJudge": 5459, "Cont": 5460, "GE": 5461, "PC": 5462, "Sp": 5463, "cription": 5464, "iate": 5465, "ye": 5466, "Ġrom": 5467, "Ġtough": 5468, "Ġmut": 5469, "Ġdial": 5470, "roid": 5471, "acc": 5472, "uto": 5473, "ĠCam": 5474, "ĠHD": 5475, "ulin": 5476, "Ġrise": 5477, "Ġalle": 5478, "Ġplate": 5479, "ĠStand": 5480, "Ġresident": 5481, "Ġspons": 5482, "ullivan": 5483, "Ġsecure": 5484, "Ġcalling": 5485, "Ġgeneration": 5486, "Ġbrown": 5487, "Ġtesting": 5488, "Ġsupply": 5489, "Ġdiscussed": 5490, "ographic": 5491, "clusion": 5492, "Ġsquare": 5493, "Ġturning": 5494, "Ġbalance": 5495, "ĠHonour": 5496, "works": 5497, "Ġexercise": 5498, "Ġcircumstances": 5499, "Te": 5500, "Ġterror": 5501, "Ġschol": 5502, "atre": 5503, "orters": 5504, "Ġdie": 5505, "ĠAccording": 5506, "Ġforced": 5507, "Ġang": 5508, "ĠDisc": 5509, "ĠFrench": 5510, "allery": 5511, "ĠJenn": 5512, "Ġchurch": 5513, "Ġcompar": 5514, "Ġcomprehens": 5515, "nect": 5516, "Ġ500": 5517, "Ġprovision": 5518, "ĠAlthough": 5519, "Ġinstance": 5520, "Ġraise": 5521, "arsh": 5522, "Ġleads": 5523, "Ġartists": 5524, "Ġdefensive": 5525, "Ġissued": 5526, "Ġmissed": 5527, "Ġrecommended": 5528, "Ġchallenges": 5529, "Ġhonor": 5530, "Ġargument": 5531, "Ġremaining": 5532, "Ġencourage": 5533, "ĠMartin": 5534, "Ġmurder": 5535, "Add": 5536, "DF": 5537, "Every": 5538, "OO": 5539, "Read": 5540, "col": 5541, "mary": 5542, "night": 5543, "llig": 5544, "ayer": 5545, "Ġath": 5546, "ĠFair": 5547, "ĠField": 5548, "Ġshape": 5549, "Ġtrain": 5550, "nergy": 5551, "Ġ09": 5552, "ĠColumb": 5553, "Ġimportance": 5554, "Ġchanging": 5555, "Ġidentify": 5556, "stitution": 5557, "Ġurban": 5558, "Ġcomfortable": 5559, "Ġcategory": 5560, "Ġresearchers": 5561, "po": 5562, "yer": 5563, "Ġtips": 5564, "Ġfuck": 5565, "Ġpush": 5566, "Ġgarden": 5567, "cean": 5568, "riage": 5569, "Ġshares": 5570, "Ġoffensive": 5571, "Ġregional": 5572, "Ġguest": 5573, "Ġstrategy": 5574, "ĠFrance": 5575, "Ġfunctions": 5576, "Ġrecorded": 5577, "Ġtests": 5578, "tenance": 5579, "Ġdepart": 5580, "ĠSeries": 5581, "ĠCanadian": 5582, "Ġholiday": 5583, "Ġneighborhood": 5584, "AB": 5585, "list": 5586, "rad": 5587, "Ġlunch": 5588, "Ġlabor": 5589, "sell": 5590, "igration": 5591, "Ġselling": 5592, "ĠLong": 5593, "ĠJon": 5594, "ourney": 5595, "ĠIns": 5596, "Ġpolic": 5597, "Ġexperts": 5598, "Ġsupported": 5599, "Ġcapacity": 5600, "Ġpossibly": 5601, "Ġpromote": 5602, "iami": 5603, "Ġaccounts": 5604, "Ġelectric": 5605, "ĠSecurity": 5606, "Ġcooking": 5607, "ĠGermany": 5608, "Ġexperienced": 5609, "98": 5610, "Or": 5611, "Ġboot": 5612, "Ġmir": 5613, "Ġmill": 5614, "Ġgolf": 5615, "ĠICT": 5616, "ĠTrib": 5617, "ĠMuseum": 5618, "ĠDuring": 5619, "ĠFil": 5620, "ĠFire": 5621, "abase": 5622, "ĠLim": 5623, "ĠGen": 5624, "ockey": 5625, "Ġchosen": 5626, "Ġjury": 5627, "odd": 5628, "Ġmeat": 5629, "oving": 5630, "Ġcommand": 5631, "cipl": 5632, "Ġlocations": 5633, "ĠiP": 5634, "Ġmetal": 5635, "Ġimproved": 5636, "Ġconcern": 5637, "Ġparticipate": 5638, "Ġentirely": 5639, "Ġexciting": 5640, "Ġdegrees": 5641, "ĠAcademy": 5642, "Ġtrouble": 5643, "Ġdollars": 5644, "Ġweapons": 5645, "Ġapparently": 5646, "App": 5647, "uous": 5648, "á¹": 5649, "âĦ¢": 5650, "Ġsession": 5651, "oration": 5652, "Ġfro": 5653, "Ġfly": 5654, "Ġinput": 5655, "Ġlock": 5656, "lymp": 5657, "ĠPoint": 5658, "illy": 5659, "Ġvill": 5660, "aints": 5661, "ophy": 5662, "Ġteaching": 5663, "Ġscr": 5664, "Ġfee": 5665, "comp": 5666, "Ġsubmit": 5667, "ĠRev": 5668, "inson": 5669, "Ġplanned": 5670, "Ġfacility": 5671, "Ġconcerns": 5672, "orgia": 5673, "Ġwalking": 5674, "ĠHotel": 5675, "ĠThomas": 5676, "51": 5677, "66": 5678, "date": 5679, "eries": 5680, "Ġbac": 5681, "alty": 5682, "ario": 5683, "Ġyes": 5684, "Ġforth": 5685, "ĠMass": 5686, "ĠDi": 5687, "ĠFore": 5688, "ĠEqu": 5689, "Ġwilling": 5690, "Ġanyway": 5691, "Ġarms": 5692, "ilding": 5693, "Ġ2001": 5694, "Ġimpossible": 5695, "Ġgreatest": 5696, "ĠArch": 5697, "Ġdestroy": 5698, "Ġdropped": 5699, "Ġscientific": 5700, "Ġapplied": 5701, "Ġarchitect": 5702, "Ġcomponents": 5703, "52": 5704, "AY": 5705, "Today": 5706, "Your": 5707, "fol": 5708, "Ġcorn": 5709, "Ġbag": 5710, "Ġflex": 5711, "Ġnorth": 5712, "oted": 5713, "ĠWild": 5714, "Ġproceed": 5715, "Ġseat": 5716, "ighter": 5717, "ĠLab": 5718, "Ġsharing": 5719, "osis": 5720, "oses": 5721, "Ġsav": 5722, "Ġmanner": 5723, "Ġ32": 5724, "Ġcoast": 5725, "Ġincred": 5726, "Ġ70": 5727, "Ġbigger": 5728, "Ġcorrespond": 5729, "Ġeducational": 5730, "Ġdebate": 5731, "Ġvictims": 5732, "Ġpulled": 5733, "Ġintroduced": 5734, "Ġutil": 5735, "Ġinstitutions": 5736, "Ġarrested": 5737, "Ġreligious": 5738, "ĠAriz": 5739, "ML": 5740, "SE": 5741, "under": 5742, "inity": 5743, "rem": 5744, "Ġsister": 5745, "Ġpow": 5746, "Ġpatch": 5747, "Ġreform": 5748, "Ġeth": 5749, "ĠPub": 5750, "Ġwearing": 5751, "ĠRam": 5752, "rip": 5753, "fection": 5754, "ureau": 5755, "ĠStr": 5756, "Ġcontro": 5757, "Ġagencies": 5758, "Ġspoke": 5759, "Ġtheme": 5760, "Ġseeking": 5761, "Ġassum": 5762, "prise": 5763, "cient": 5764, "Ġrand": 5765, "ĠAdvis": 5766, "ĠLead": 5767, "Ġoperation": 5768, "Ġtells": 5769, "Ġhappening": 5770, "Ġcreative": 5771, "Ġaccepted": 5772, "Ġpanel": 5773, "Ġfolks": 5774, "Ġfifth": 5775, "Ġnumerous": 5776, "Ġphilos": 5777, "43": 5778, "Rep": 5779, "hab": 5780, "Ġ01": 5781, "inciples": 5782, "atin": 5783, "Ġcore": 5784, "ĠSky": 5785, "ĠCy": 5786, "season": 5787, "ĠMo": 5788, "ĠMiller": 5789, "Ġstopped": 5790, "ceeds": 5791, "ĠDou": 5792, "ĠHarr": 5793, "Ġconc": 5794, "Ġconven": 5795, "ĠOffic": 5796, "ĠThus": 5797, "Ġreserved": 5798, "Ġanywhere": 5799, "onds": 5800, "Ġarrange": 5801, "issipp": 5802, "weet": 5803, "ĠAnderson": 5804, "azz": 5805, "Ġexposure": 5806, "Ġfeels": 5807, "Ġproperly": 5808, "Ġpractices": 5809, "Ġupdated": 5810, "Ġconsumers": 5811, "razy": 5812, "ĠTechnology": 5813, "Ġnewspaper": 5814, "Ġingredients": 5815, "ĠSoftware": 5816, "77": 5817, "Col": 5818, "Let": 5819, "ba": 5820, "eu": 5821, "opp": 5822, "ya": 5823, "ato": 5824, "Ġcart": 5825, "ingu": 5826, "Ġped": 5827, "ĠIV": 5828, "ĠAward": 5829, "ĠMiddle": 5830, "ĠWin": 5831, "ĠHun": 5832, "Ġsector": 5833, "Ġdelic": 5834, "Ġshopping": 5835, "ĠStan": 5836, "Ġagent": 5837, "erves": 5838, "ups": 5839, "ĠProte": 5840, "Ġapproved": 5841, "Ġwriter": 5842, "poses": 5843, "Ġfocused": 5844, "Ġjudge": 5845, "ĠInstead": 5846, "hetic": 5847, "Ġbegins": 5848, "ĠHistory": 5849, "Ġcrisis": 5850, "!)": 5851, "HS": 5852, "Ste": 5853, "TC": 5854, "hat": 5855, "Ġerror": 5856, "Ġtight": 5857, "Ġsides": 5858, "Ġcop": 5859, "Ġcouncil": 5860, "Ġmaps": 5861, "ĠSullivan": 5862, "ĠTake": 5863, "amber": 5864, "ols": 5865, "Ġstars": 5866, "ĠDown": 5867, "Ġrid": 5868, "ĠUlt": 5869, "izer": 5870, "Ġcontroll": 5871, "angers": 5872, "Ġserving": 5873, "Ġhelpful": 5874, "ahoo": 5875, "Ġbright": 5876, "Ġinterpret": 5877, "Ġconflic": 5878, "Ġexplained": 5879, "Ġterminal": 5880, "Ġwalked": 5881, "Click": 5882, "ĠCharles": 5883, "Ġshooting": 5884, "Ġoccurred": 5885, "Ġscheduled": 5886, "Ġban": 5887, "icit": 5888, "ĠIran": 5889, "Ġforg": 5890, "ĠHol": 5891, "ĠEag": 5892, "agon": 5893, "Ġmere": 5894, "Ġsole": 5895, "ĠVict": 5896, "aves": 5897, "Ġscale": 5898, "Ġamend": 5899, "Ġtransform": 5900, "Ġvisited": 5901, "azon": 5902, "Ġrealize": 5903, "ERE": 5904, "Ġturns": 5905, "ĠMaybe": 5906, "Ġvisitors": 5907, "idden": 5908, "Ġcultural": 5909, "Ġcloser": 5910, "ĠWilliams": 5911, "Ġroute": 5912, "Ġlegislation": 5913, "ĠSpring": 5914, "ĠColorado": 5915, "issippi": 5916, "Sc": 5917, "Spe": 5918, "aver": 5919, "iture": 5920, "Ġpure": 5921, "Ġpsych": 5922, "lets": 5923, "Ġnative": 5924, "Ġeating": 5925, "Ġefficient": 5926, "Ġgrown": 5927, "Ġgrab": 5928, "ĠAL": 5929, "Ġfort": 5930, "Ġyouth": 5931, "ĠMid": 5932, "ĠMobile": 5933, "ĠHave": 5934, "Ġseasons": 5935, "Ġvan": 5936, "ĠOlymp": 5937, "Ġchain": 5938, "Ġdish": 5939, "Ġunivers": 5940, "nell": 5941, "Ġscript": 5942, "Ġaccident": 5943, "ternal": 5944, "Ġsubs": 5945, "Ġinches": 5946, "Ġreporting": 5947, "Ġbringing": 5948, "ĠSecret": 5949, "ĠPolice": 5950, "ĠTennessee": 5951, "First": 5952, "lation": 5953, "Ġtask": 5954, "Ġbound": 5955, "Ġmo": 5956, "Ġdance": 5957, "Ġbeach": 5958, "igr": 5959, "Ġcontext": 5960, "gend": 5961, "rible": 5962, "ĠJosh": 5963, "Ġseek": 5964, "ĠAnother": 5965, "Ġhandle": 5966, "Ġconfig": 5967, "ANT": 5968, "ĠMedical": 5969, "Ġcuts": 5970, "rooms": 5971, "Ġlaun": 5972, "Ġrecognized": 5973, "Ġcapture": 5974, "Ġinfluence": 5975, "Ġpredict": 5976, "Ġbusy": 5977, "Ġcandidates": 5978, "Ġbasketball": 5979, "Ġbehavior": 5980, "Ġcitizens": 5981, "Ġrandom": 5982, ".|": 5983, "56": 5984, "hand": 5985, "ias": 5986, "Ġtrib": 5987, "Ġsad": 5988, "Ġcooper": 5989, "orough": 5990, "Ġlaugh": 5991, "ĠSir": 5992, "urd": 5993, "Ġstorage": 5994, "estic": 5995, "ĠLear": 5996, "Ġvice": 5997, "ĠHead": 5998, "Ġfees": 5999, "Ġentered": 6000, "ĠLee": 6001, "Ġcrew": 6002, "Ġsupports": 6003, "ĠOnly": 6004, "Ġbuildings": 6005, "Ġpayment": 6006, "ronics": 6007, "ĠÂ©": 6008, "Ġdistribution": 6009, "Ġdisappoint": 6010, "EA": 6011, "Go": 6012, "iency": 6013, "Ġpit": 6014, "Ġpal": 6015, "Ġdyn": 6016, "ĠCS": 6017, "ĠCustom": 6018, "ĠBet": 6019, "ĠBrand": 6020, "ĠDivision": 6021, "ĠRoom": 6022, "ria": 6023, "Ġring": 6024, "ĠEnergy": 6025, "ĠJun": 6026, "Ġresol": 6027, "Ġevil": 6028, "Ġ300": 6029, "Ġspeech": 6030, "ĠClick": 6031, "Ġfiled": 6032, "Ġseriously": 6033, "Ġprocesses": 6034, "ĠExpl": 6035, "Ġfriendly": 6036, "ART": 6037, "Ġportion": 6038, "Ġparticipants": 6039, "Ġassistance": 6040, "Ġorders": 6041, "Ġdetailed": 6042, "lastname": 6043, "Ġpolicies": 6044, "59": 6045, "UL": 6046, "Us": 6047, "from": 6048, "Ġtables": 6049, "hered": 6050, "Ġnone": 6051, "Ġelement": 6052, "Ġforces": 6053, "irty": 6054, "Ġhero": 6055, "ĠBrian": 6056, "ĠWhere": 6057, "Ġconsequ": 6058, "ĠFund": 6059, "Ġwaste": 6060, "ĠEr": 6061, "Ġhasn": 6062, "berry": 6063, "Ġenforce": 6064, "Ġcontest": 6065, "Ġactions": 6066, "Ġconscious": 6067, "away": 6068, "Ġregul": 6069, "Ġedition": 6070, "Ġmedium": 6071, "Ġextensive": 6072, "Ġpurposes": 6073, "Ġprofile": 6074, "Ġequity": 6075, "Ġinfrast": 6076, "Ġsongs": 6077, "Ġenhance": 6078, "Ġcommitment": 6079, "KE": 6080, "Oct": 6081, "UN": 6082, "mes": 6083, "Ġbare": 6084, "arry": 6085, "Ġthick": 6086, "ĠCost": 6087, "ĠCath": 6088, "Ġstret": 6089, "ĠRoy": 6090, "Ġrub": 6091, "umin": 6092, "Ġchapter": 6093, "Ġupcoming": 6094, "ĠStat": 6095, "ĠVer": 6096, "Ġunlike": 6097, "ĠIts": 6098, "Ġrelief": 6099, "Ġ66": 6100, "Ġdiscount": 6101, "Ġincreases": 6102, "Ġproperties": 6103, "Ġdepth": 6104, "Ġfreed": 6105, "Ġbottle": 6106, "Ġmatters": 6107, "ĠMichigan": 6108, "ĠPatrick": 6109, "ĠRepublicans": 6110, "Ġessential": 6111, "Ġnegative": 6112, "Ġfixed": 6113, "Ġhundreds": 6114, "Ġfemale": 6115, "Ġresistance": 6116, "Ġwedding": 6117, "Ġperspective": 6118, "owntown": 6119, "Ġcomprehensive": 6120, "!\"": 6121, "Sub": 6122, "ht": 6123, "mosp": 6124, "tion": 6125, "onna": 6126, "Ġpounds": 6127, "ĠAD": 6128, "imp": 6129, "iry": 6130, "ĠPac": 6131, "ĠHy": 6132, "Ġsea": 6133, "ĠRights": 6134, "ĠEric": 6135, "ĠJew": 6136, "Ġteach": 6137, "ograp": 6138, "ĠVM": 6139, "Ġunits": 6140, "ensions": 6141, "obe": 6142, "Ġsmooth": 6143, "Ġdecades": 6144, "gery": 6145, "Ġmusical": 6146, "ESS": 6147, "Ġbreast": 6148, "Ġdelay": 6149, "Ġveget": 6150, "Ġmarried": 6151, "Ġpicked": 6152, "ĠJustice": 6153, "Ġinstalled": 6154, "ĠTravel": 6155, "Ġrestaurants": 6156, "Ġconsistent": 6157, "ĠAttorney": 6158, "Ġalleged": 6159, "41": 6160, "TR": 6161, "iability": 6162, "ker": 6163, "oors": 6164, "uzz": 6165, "Ġille": 6166, "Ġwa": 6167, "Ġwarrant": 6168, "Ġcards": 6169, "arters": 6170, "Ġhits": 6171, "stone": 6172, "Ġgather": 6173, "acr": 6174, "ĠMic": 6175, "ĠMiami": 6176, "ĠBa": 6177, "ĠHospital": 6178, "ĠFoot": 6179, "Ġexchange": 6180, "osc": 6181, "ĠOk": 6182, "Ġworse": 6183, "Ġclan": 6184, "Ġagents": 6185, "Ġspr": 6186, "Ġtwe": 6187, "Ġremote": 6188, "Ġdecre": 6189, "Ġadvent": 6190, "ĠBlog": 6191, "Ġconfident": 6192, "Ġtechnologies": 6193, "Ġtechniques": 6194, "Ġtested": 6195, "Ġfaculty": 6196, "ĠCoast": 6197, "Ġdram": 6198, "Ġtotally": 6199, "Ġantib": 6200, "Ġexpressed": 6201, "Ġappeal": 6202, "Ġhorse": 6203, "ĠMississippi": 6204, "Ġbirds": 6205, "Ġobviously": 6206, "Ġbrowser": 6207, "57": 6208, "Most": 6209, "PA": 6210, "awn": 6211, "bury": 6212, "jump": 6213, "lig": 6214, "Ġodd": 6215, "Ġcraft": 6216, "Ġfinger": 6217, "Ġpil": 6218, "ĠTro": 6219, "uts": 6220, "ador": 6221, "ĠHam": 6222, "ĠRay": 6223, "ĠNight": 6224, "Ġexcess": 6225, "Ġsuit": 6226, "ĠOl": 6227, "eline": 6228, "Ġalive": 6229, "ĠJones": 6230, "inding": 6231, "ĠKore": 6232, "cknow": 6233, "Ġserves": 6234, "plete": 6235, "uclear": 6236, "Ġcrack": 6237, "Ġreceiving": 6238, "Ġ1999": 6239, "Ġtelling": 6240, "Ġcampus": 6241, "ĠEnvironment": 6242, "Review": 6243, "Ġbeauty": 6244, "Ġadvertising": 6245, "ĠKrish": 6246, "En": 6247, "coh": 6248, "greg": 6249, "words": 6250, "Ġfestival": 6251, "Ġmel": 6252, "Ġdiet": 6253, "ĠSak": 6254, "uration": 6255, "ĠMa": 6256, "ĠMatt": 6257, "oln": 6258, "irms": 6259, "ĠFort": 6260, "rag": 6261, "essions": 6262, "ĠLight": 6263, "ĠGil": 6264, "Ġvideos": 6265, "arts": 6266, "ĠON": 6267, "Ġabuse": 6268, "Ġrecovery": 6269, "anges": 6270, "Ġplayoff": 6271, "Ġemphas": 6272, "ĠArmy": 6273, "Ġ08": 6274, "Ġexplains": 6275, "ĠSpanish": 6276, "ĠMinister": 6277, "Ġoppon": 6278, "However": 6279, "Ġsurprised": 6280, "Ġdivision": 6281, "Ġdepending": 6282, "Ġcategories": 6283, "Ġdefendant": 6284, "idelines": 6285, "Dr": 6286, "FOR": 6287, "John": 6288, "Since": 6289, "ml": 6290, "rics": 6291, "Ġwid": 6292, "Ġwest": 6293, "oria": 6294, "Ġburn": 6295, "Ġment": 6296, "road": 6297, "ĠAR": 6298, "ĠWal": 6299, "ĠDen": 6300, "essed": 6301, "ĠLook": 6302, "Ġrac": 6303, "ĠEconom": 6304, "Then": 6305, "âĢĿ,": 6306, "Ġclimate": 6307, "Ġspin": 6308, "Ġjustice": 6309, "Ġpregn": 6310, "Ġfirstname": 6311, "Ġdesk": 6312, "Ġcovers": 6313, "ĠAndroid": 6314, "Ġsym": 6315, "Ġpasses": 6316, "ĠBeach": 6317, "Ġideal": 6318, "Ġsalt": 6319, "Ġauthority": 6320, "Ġclubs": 6321, "Ġhoping": 6322, "Ġfrequently": 6323, "Ġoccasion": 6324, "Ġsubstant": 6325, "ĠArizona": 6326, "Am": 6327, "Ed": 6328, "Res": 6329, "UD": 6330, "Up": 6331, "bar": 6332, "cue": 6333, "look": 6334, "Ġ||": 6335, "Ġacknow": 6336, "Ġfing": 6337, "Ġhall": 6338, "icial": 6339, "ashed": 6340, "lee": 6341, "Ġlosing": 6342, "Ġnav": 6343, "Ġgay": 6344, "Ġgifts": 6345, "ĠAccess": 6346, "ĠCL": 6347, "ĠCond": 6348, "adel": 6349, "Ġhell": 6350, "ĠWalk": 6351, "Ġseats": 6352, "ĠLog": 6353, "plant": 6354, "Ġadmitted": 6355, "Ġteen": 6356, "izz": 6357, "Ġpermission": 6358, "Ġourselves": 6359, "Ġpreced": 6360, "Ġrot": 6361, "Ġsmile": 6362, "Ġmode": 6363, "Ġexplore": 6364, "Ġcorporate": 6365, "Ġmaintenance": 6366, "poration": 6367, "Ġholds": 6368, "Ġcauses": 6369, "Ġmoments": 6370, "ĠGeorgia": 6371, "Ġencounter": 6372, "ĠControl": 6373, "ĠMarketing": 6374, "Ġprepare": 6375, "Ġsurprise": 6376, "Ġgraduate": 6377, "Ġvacc": 6378, "Ġautomatically": 6379, "Ġmonitoring": 6380, "Ġathlet": 6381, "TV": 6382, "giving": 6383, "high": 6384, "va": 6385, "Ġsoul": 6386, "Ġlit": 6387, "sts": 6388, "ĠSports": 6389, "ĠSouthern": 6390, "ĠAud": 6391, "Ġstored": 6392, "ĠBoth": 6393, "Ġprove": 6394, "ework": 6395, "ĠLt": 6396, "ĠLabor": 6397, "ellect": 6398, "Ġplastic": 6399, "Ġusual": 6400, "Ġenem": 6401, "Ġque": 6402, "Ġaccomp": 6403, "anged": 6404, "Ġacts": 6405, "Ġcof": 6406, "ĠProv": 6407, "Ġminimum": 6408, "Ġgrade": 6409, "Ġfactor": 6410, "Ġpossession": 6411, "Ġpaying": 6412, "Ġdebt": 6413, "ĠAbout": 6414, "Ġhopes": 6415, "Ġprocedures": 6416, "MA": 6417, "Other": 6418, "afe": 6419, "vy": 6420, "Ġtag": 6421, "rep": 6422, "Ġsoph": 6423, "Ġbread": 6424, "alle": 6425, "alse": 6426, "arrow": 6427, "Ġloud": 6428, "oty": 6429, "ĠMel": 6430, "olis": 6431, "ĠHaw": 6432, "ĠRest": 6433, "ĠLob": 6434, "ĠEp": 6435, "ums": 6436, "Ġworst": 6437, "pload": 6438, "claim": 6439, "Ġflight": 6440, "Ġphase": 6441, "ĠAndrew": 6442, "Ġdecor": 6443, "Ġinsulin": 6444, "Ġpassing": 6445, "Ġpassion": 6446, "Ġplanet": 6447, "Ġpercentage": 6448, "Ġversions": 6449, "Ġindeed": 6450, "Ġemergency": 6451, "Ġfellow": 6452, "ĠMemorial": 6453, "Ġfabric": 6454, "EG": 6455, "ini": 6456, "ena": 6457, "ench": 6458, "Ġbull": 6459, "Ġfruit": 6460, "Ġpoly": 6461, "Ġhook": 6462, "aser": 6463, "ĠSQL": 6464, "Ġstorm": 6465, "ĠBell": 6466, "ĠDO": 6467, "ĠHard": 6468, "ĠHIV": 6469, "tha": 6470, "rome": 6471, "abin": 6472, "ĠGM": 6473, "oute": 6474, "Ġsoil": 6475, "ĠThose": 6476, "cles": 6477, "Ġoffense": 6478, "iley": 6479, "Ġguard": 6480, "Ġmoder": 6481, "Ġsignals": 6482, "Ġadvoc": 6483, "Ġpassword": 6484, "Ġauthors": 6485, "Ġfunny": 6486, "Ġdrawn": 6487, "Ġfeatured": 6488, "Ġconstruct": 6489, "Ġfields": 6490, "Ġmessages": 6491, "Ġcritic": 6492, "Ġpurchased": 6493, "Ġimmediate": 6494, "Ġstrike": 6495, "Ġengineering": 6496, "Ġliked": 6497, "Ġobvious": 6498, "Ġtransportation": 6499, "Ġepisode": 6500, "Ġprofessionals": 6501, ",'": 6502, "Nan": 6503, "View": 6504, "ection": 6505, "gas": 6506, "gent": 6507, "iat": 6508, "mar": 6509, "uations": 6510, "Ġfault": 6511, "ano": 6512, "icious": 6513, "sters": 6514, "âĢĺ": 6515, "ĠSP": 6516, "utch": 6517, "otes": 6518, "ĠMit": 6519, "Ġstadium": 6520, "ĠDie": 6521, "Ġrough": 6522, "ivered": 6523, "osite": 6524, "aks": 6525, "Ġquant": 6526, "Ġunable": 6527, "ĠUnum": 6528, "ifications": 6529, "Ġintellig": 6530, "Ġdiscovered": 6531, "Ġcheap": 6532, "ĠLeg": 6533, "Ġsigns": 6534, "ĠArts": 6535, "oking": 6536, "198": 6537, "Ġbroken": 6538, "Ġfoods": 6539, "Ġfavour": 6540, "Ġdescription": 6541, "Ġcompetitive": 6542, "Ġauthorities": 6543, "Ġbuying": 6544, "Ġdisplayed": 6545, "Ġattacks": 6546, "Ġassistant": 6547, "Ġattended": 6548, "Ġcopyright": 6549, "Ġexperiences": 6550, "ĠAuthor": 6551, "Ġfeedback": 6552, "Ġaccurate": 6553, "Ġtemperature": 6554, "abetes": 6555, "Ġcoffee": 6556, "Can": 6557, "FC": 6558, "Free": 6559, "Ġ)": 6560, "Ġ<": 6561, "Ġwal": 6562, "Ġwins": 6563, "Ġbanks": 6564, "Ġinfect": 6565, "Ġlau": 6566, "Ġloves": 6567, "aylor": 6568, "ĠPan": 6569, "Ġatmosp": 6570, "ĠFestival": 6571, "istan": 6572, "ĠEX": 6573, "Ġmeal": 6574, "Ġneck": 6575, "ogue": 6576, "ĠThank": 6577, "icky": 6578, "aven": 6579, "Ġnoise": 6580, "Ġrail": 6581, "ounsel": 6582, "ikes": 6583, "Ġletters": 6584, "Ġlegs": 6585, "Ġinfo": 6586, "ĠIndust": 6587, "Ġoriginally": 6588, "Ġenjoyed": 6589, "onym": 6590, "Ġtreated": 6591, "Ġreplaced": 6592, "Ġtracks": 6593, "Ġtypically": 6594, "Ġpleased": 6595, "Ġstruck": 6596, "American": 6597, "58": 6598, "Over": 6599, "Pe": 6600, "UM": 6601, "cons": 6602, "ey": 6603, "uable": 6604, "vable": 6605, "Â©": 6606, "ÃŃ": 6607, "Ġtab": 6608, "inations": 6609, "Ġsam": 6610, "itar": 6611, "Ġbon": 6612, "struction": 6613, "ĠSus": 6614, "Ġbear": 6615, "Ġweak": 6616, "ĠDar": 6617, "ĠFar": 6618, "ĠFull": 6619, "ĠLin": 6620, "ĠLew": 6621, "ĠLuc": 6622, "Ġvoc": 6623, "eless": 6624, "ĠJo": 6625, "aped": 6626, "Ġoutput": 6627, "obody": 6628, "Ġregister": 6629, "Ġentr": 6630, "Ġentit": 6631, "Ġdefined": 6632, "Ġsupporting": 6633, "Ġextract": 6634, "Ġfacts": 6635, "Ġ1996": 6636, "Ġ1998": 6637, "Ġrisks": 6638, "Ġconsideration": 6639, "Ġobjects": 6640, "Ġsurprising": 6641, "Ġfighting": 6642, "Ġslowly": 6643, "Ġmassive": 6644, "ĠWilson": 6645, "Ġentertainment": 6646, "ĠKrishna": 6647, "March": 6648, "lvan": 6649, "rical": 6650, "Ġiron": 6651, "Ġbid": 6652, "anes": 6653, "ication": 6654, "roke": 6655, "ĠCM": 6656, "ilit": 6657, "ĠDC": 6658, "ĠNO": 6659, "Ġvary": 6660, "ĠKansas": 6661, "ansion": 6662, "ĠVideo": 6663, "Ġemp": 6664, "Thanks": 6665, "ĠSeattle": 6666, "Ġdecade": 6667, "Ġvisible": 6668, "Ġrealized": 6669, "Ġfollows": 6670, "Ġartist": 6671, "Ġformed": 6672, "Ġglad": 6673, "ĠCommunic": 6674, "Ġnearby": 6675, "Ġvisiting": 6676, "Ġdrivers": 6677, "Ġofficers": 6678, "Ġmarriage": 6679, "Ġswitch": 6680, "ĠSupport": 6681, "ĠBooth": 6682, "Ġcomplaint": 6683, "Ġillness": 6684, "Ġillustr": 6685, "Ġordered": 6686, "ĠDisney": 6687, "Ġnormally": 6688, "IGH": 6689, "ĠAustralian": 6690, "Ġhistorical": 6691, "Ġaspects": 6692, "ĠAdministration": 6693, "PM": 6694, "Pr": 6695, "Rec": 6696, "boy": 6697, "iology": 6698, "nam": 6699, "Ġtie": 6700, "Ġcas": 6701, "Ġmale": 6702, "Ġhat": 6703, "Ġhate": 6704, "omy": 6705, "enter": 6706, "Ġgear": 6707, "ĠSO": 6708, "ĠTour": 6709, "ĠCirc": 6710, "ĠMD": 6711, "ĠMajor": 6712, "ĠPass": 6713, "Ġaside": 6714, "ĠFred": 6715, "Ġsevere": 6716, "Ġ($": 6717, "ĠLove": 6718, "Ġjourney": 6719, "ocket": 6720, "Ġregulations": 6721, "Ġinvited": 6722, "Ġenth": 6723, "Ġhighlight": 6724, "Ġbelong": 6725, "Ġcourses": 6726, "ucks": 6727, "Ġextent": 6728, "Ġbelieves": 6729, "Ġofficer": 6730, "Ġtradem": 6731, "Ġpolitics": 6732, "Ġperfectly": 6733, "Ġsuggested": 6734, "Ġdescribe": 6735, "Ġdrugs": 6736, "Ġscenes": 6737, "ĠColumbia": 6738, "ellectual": 6739, "Gu": 6740, "IE": 6741, "ta": 6742, "Ã¢": 6743, "itage": 6744, "Ġbunch": 6745, "Ġpm": 6746, "Ġgene": 6747, "ĠPur": 6748, "ĠBow": 6749, "ĠDid": 6750, "ĠDaily": 6751, "ĠFed": 6752, "ĠNan": 6753, "ĠJac": 6754, "Ġjoy": 6755, "Ġkne": 6756, "Ġneither": 6757, "ults": 6758, "onsin": 6759, "Ġsubsequ": 6760, "Ġincident": 6761, "Ġdiscover": 6762, "ĠAdv": 6763, "Ġpossibility": 6764, "Ġbroke": 6765, "Ġinvestors": 6766, "Ġreturns": 6767, "Ġtrading": 6768, "ĠAgain": 6769, "ĠKey": 6770, "ĠANY": 6771, "Ġexamples": 6772, "Ġcommunications": 6773, "Ġfairly": 6774, "Ġconducted": 6775, "Ġaffected": 6776, "ĠJapanese": 6777, "Ġbullet": 6778, "Ġrenew": 6779, "78": 6780, "Copyright": 6781, "GB": 6782, "lie": 6783, "ritten": 6784, "swe": 6785, "Ġtast": 6786, "Ġaid": 6787, "Ġhurt": 6788, "lete": 6789, "Ġnarr": 6790, "Ġeffic": 6791, "ayers": 6792, "owing": 6793, "ĠMaster": 6794, "ĠHim": 6795, "ĠFollow": 6796, "this": 6797, "ĠList": 6798, "Ġsufficient": 6799, "elf": 6800, "actions": 6801, "ĠKen": 6802, "ĠStart": 6803, "Ġweren": 6804, "Ġarts": 6805, "Ġrow": 6806, "Ġflowers": 6807, "Ġpersonally": 6808, "certain": 6809, "Ġedge": 6810, "Ġconfirmed": 6811, "ĠQue": 6812, "isconsin": 6813, "Ġtalked": 6814, "iveness": 6815, "Ġorigin": 6816, "ITY": 6817, "Ġcutting": 6818, "Ġidentity": 6819, "ĠPartners": 6820, "Ġrepresented": 6821, "Ġanswers": 6822, "Ġsomewhat": 6823, "ollywood": 6824, "ĠChampions": 6825, "64": 6826, "BI": 6827, "CS": 6828, "ev": 6829, "hatt": 6830, "hemat": 6831, "including": 6832, "eria": 6833, "oup": 6834, "Ġmal": 6835, "Ġhitting": 6836, "ican": 6837, "ĠSup": 6838, "uting": 6839, "amon": 6840, "ĠBE": 6841, "ĠBowl": 6842, "ĠFox": 6843, "rav": 6844, "ulous": 6845, "umes": 6846, "ĠInn": 6847, "Ġcontem": 6848, "never": 6849, "ishing": 6850, "Ġspeaking": 6851, "uality": 6852, "Ġinvent": 6853, "athan": 6854, "Ġends": 6855, "Ġdistinct": 6856, "Ġintention": 6857, "Ġski": 6858, "ATE": 6859, "Ġbelief": 6860, "Ġmilk": 6861, "Ġfeaturing": 6862, "Ġsentence": 6863, "appy": 6864, "Although": 6865, "Ġfalling": 6866, "profit": 6867, "Ġmeetings": 6868, "ĠEliz": 6869, "Ġtalent": 6870, "Ġtalks": 6871, "Ġmaximum": 6872, "Ġdangerous": 6873, "Two": 6874, "lines": 6875, "Ġtherap": 6876, "Ġwave": 6877, "Ġox": 6878, "ala": 6879, "Ġtom": 6880, "astern": 6881, "Ġgrew": 6882, "ĠSet": 6883, "uter": 6884, "ĠCooper": 6885, "ĠMA": 6886, "ĠMP": 6887, "ĠRon": 6888, "abled": 6889, "anti": 6890, "teen": 6891, "Ġcloud": 6892, "ĠYahoo": 6893, "ĠAndy": 6894, "Ġsurgery": 6895, "Ġtransf": 6896, "Ġcarried": 6897, "rives": 6898, "Ġretire": 6899, "Ġapproval": 6900, "scape": 6901, "2010": 6902, "Ġanticip": 6903, "Ġappearance": 6904, "ĠBrad": 6905, "Reg": 6906, "ĠDoes": 6907, "ĠIII": 6908, "Ġlicense": 6909, "Ġwatched": 6910, "Ġconcentr": 6911, "Ġchampionship": 6912, "Ġtouchdowns": 6913, "Ġscholars": 6914, "ĠSakura": 6915, "lvania": 6916, "Mr": 6917, "da": 6918, "pass": 6919, "run": 6920, "Ġtip": 6921, "erver": 6922, "Ġsick": 6923, "Ġbowl": 6924, "level": 6925, "ĠTur": 6926, "ĠPop": 6927, "ĠBase": 6928, "ĠFall": 6929, "ĠRom": 6930, "ĠRyan": 6931, "ĠNFL": 6932, "ocation": 6933, "closure": 6934, "ibilities": 6935, "Ġresource": 6936, "Ġevolution": 6937, "Ġadds": 6938, "ĠYoung": 6939, "ometimes": 6940, "Ġowned": 6941, "Ġstatements": 6942, "ĠAdam": 6943, "Ġtopics": 6944, "Ġgenerated": 6945, "Ġstands": 6946, "Ġpresentation": 6947, "ĠAmazon": 6948, "Ã©s": 6949, "aska": 6950, "ĠSecond": 6951, "ĠStudies": 6952, "Ġwalls": 6953, "Ġhistoric": 6954, "Ġextended": 6955, "Ġdatabase": 6956, "Ġhouses": 6957, "Ġescape": 6958, "ĠJoseph": 6959, "cohol": 6960, "During": 6961, "Ind": 6962, "cific": 6963, "eal": 6964, "game": 6965, "hem": 6966, "oral": 6967, "isters": 6968, "Ġdiverse": 6969, "stood": 6970, "Ġgiant": 6971, "ĠTaylor": 6972, "ĠCall": 6973, "ĠCON": 6974, "ĠMS": 6975, "ĠFA": 6976, "Ġcomedy": 6977, "abeth": 6978, "Ġnoticed": 6979, "Ġchannel": 6980, "Ġbutter": 6981, "ĠKell": 6982, "ĠInvest": 6983, "ilyeu": 6984, "Ġflash": 6985, "Ġattached": 6986, "ĠAnna": 6987, "Ġfamous": 6988, "Ġcarefully": 6989, "Ġpublication": 6990, "Ġelimin": 6991, "ĠTrust": 6992, "ĠDavis": 6993, "Ġrecommendations": 6994, "Ġfigures": 6995, "Ġsignificantly": 6996, "Ġpersons": 6997, "Ġcomponent": 6998, "Ġoutdoor": 6999, "Ġinfrastructure": 7000, ".âĢĻ": 7001, "54": 7002, "aud": 7003, "bour": 7004, "long": 7005, "pet": 7006, "rary": 7007, "onto": 7008, "Ġcrazy": 7009, "eding": 7010, "Ġmort": 7011, "Ġrear": 7012, "Ġnurs": 7013, "roit": 7014, "ĠSign": 7015, "ĠMax": 7016, "ĠPerson": 7017, "Ġproceeds": 7018, "Ġhaz": 7019, "ĠFL": 7020, "ĠNin": 7021, "Ġdogs": 7022, "Ġking": 7023, "Ġcontrast": 7024, "cling": 7025, "ĠYan": 7026, "inton": 7027, "ishment": 7028, "Ġaccused": 7029, "Ġindicated": 7030, "Ġsubmitted": 7031, "Ġremained": 7032, "Ġslot": 7033, "Ġmoves": 7034, "Ġhardware": 7035, "Ġpatent": 7036, "Ġelig": 7037, "Ġlights": 7038, "Ġfacing": 7039, "ĠCarl": 7040, "Ġprompt": 7041, "Ġcomputers": 7042, "Ġparad": 7043, "Ġpractical": 7044, "Ġreasonable": 7045, "ecutive": 7046, "Ġrevealed": 7047, "Check": 7048, "Ġstreets": 7049, "ĠEagles": 7050, "53": 7051, "COM": 7052, "RL": 7053, "dale": 7054, "mates": 7055, "new": 7056, "hent": 7057, "Ġsample": 7058, "Ġmand": 7059, "Ġinqu": 7060, "ĠSher": 7061, "ĠCook": 7062, "ĠWatch": 7063, "ĠFriend": 7064, "ested": 7065, "Ġdeals": 7066, "eman": 7067, "Ġplug": 7068, "itionally": 7069, "Ġ49": 7070, "Ġflood": 7071, "Ġassets": 7072, "airy": 7073, "Ġfranch": 7074, "Who": 7075, "Ġheads": 7076, "Ġperformances": 7077, "Ġequitable": 7078, "ĠSpace": 7079, "Ġdelivered": 7080, "Ġfaces": 7081, "Ġwrites": 7082, "Ġinvolve": 7083, "Ġreduced": 7084, "inois": 7085, "Ġbroadcast": 7086, "Ġlabel": 7087, "Ġquarterback": 7088, "Ġlikes": 7089, "Ġappreciate": 7090, "800": 7091, "Are": 7092, "RS": 7093, "[/": 7094, "front": 7095, "hop": 7096, "http": 7097, "makers": 7098, "Ġtank": 7099, "hester": 7100, "Ġsan": 7101, "ouri": 7102, "Ġhole": 7103, "enth": 7104, "Ġlob": 7105, "otal": 7106, "Ġongoing": 7107, "ĠCA": 7108, "urning": 7109, "Ġstruct": 7110, "ĠWisconsin": 7111, "Ġhabit": 7112, "usal": 7113, "umble": 7114, "agues": 7115, "Ġsauce": 7116, "Ġoutstanding": 7117, "Ġclock": 7118, "Ġ34": 7119, "merce": 7120, "ancer": 7121, "ĠDead": 7122, "ĠBefore": 7123, "Ġlovely": 7124, "Ġkeeps": 7125, "ĠPhys": 7126, "ISS": 7127, "Another": 7128, "Ġairport": 7129, "Ġwindows": 7130, "Ġdiabetes": 7131, "Ġregularly": 7132, "Ġdrawing": 7133, "Ġfishing": 7134, "Ġpartnership": 7135, "Ġvehicles": 7136, "Ġinstitution": 7137, "Ġterrit": 7138, "Ġassessment": 7139, "Ġestimated": 7140, "ĠNaruto": 7141, "Ġillegal": 7142, "ĠLewis": 7143, "Int": 7144, "Jan": 7145, "Man": 7146, "cus": 7147, "host": 7148, "iors": 7149, "person": 7150, "Ġtied": 7151, "anwhile": 7152, "Ġdowntown": 7153, "Ġhur": 7154, "lly": 7155, "Ġlie": 7156, "Ġliqu": 7157, "Ġgro": 7158, "lyn": 7159, "etime": 7160, "ĠBible": 7161, "ĠRod": 7162, "ĠLive": 7163, "ĠNich": 7164, "ĠNAS": 7165, "Ġexec": 7166, "Ġchicken": 7167, "Ġjew": 7168, "Ġadmit": 7169, "Ġapps": 7170, "Ġflour": 7171, "Ġembr": 7172, "Ġbuck": 7173, "Ġproducing": 7174, "ĠReal": 7175, "Ġspecified": 7176, "Ġtransition": 7177, "Ġlistening": 7178, "Ġstrange": 7179, "Ġgotten": 7180, "Ġformal": 7181, "ĠCommon": 7182, "Ġrecording": 7183, "Ġaccessible": 7184, "Ġreleases": 7185, "ĠContent": 7186, "REE": 7187, "Ġimprovements": 7188, "sylvania": 7189, "Ġroutine": 7190, "Ġultimately": 7191, "ĠDemocrats": 7192, "Ġbathroom": 7193, "Ġadministrative": 7194, "Ġlaunched": 7195, "Ġenforcement": 7196, "ĠCatholic": 7197, "ĠPacific": 7198, "Ġsympt": 7199, "Ġenthus": 7200, "DS": 7201, "Have": 7202, "IF": 7203, "Pol": 7204, "Sec": 7205, "cr": 7206, "iences": 7207, "nic": 7208, "pir": 7209, "Ġterr": 7210, "Ġtaught": 7211, "isk": 7212, "Ġdates": 7213, "Ġles": 7214, "ĠSn": 7215, "Ġyellow": 7216, "ĠCe": 7217, "ola": 7218, "ifer": 7219, "ĠDun": 7220, "ĠData": 7221, "ulner": 7222, "anted": 7223, "umps": 7224, "resents": 7225, "aine": 7226, "ĠOreg": 7227, "ĠJr": 7228, "ĠJay": 7229, "iva": 7230, "ricult": 7231, "Ġboat": 7232, "Ġorganic": 7233, "ormal": 7234, "Ġpositions": 7235, "Ġbelieved": 7236, "Ġfundament": 7237, "Ġsentencing": 7238, "Ġsixth": 7239, "Ġ1980": 7240, "Ġdebut": 7241, "Ġvolume": 7242, "Ġregistration": 7243, "razil": 7244, "Ġlicens": 7245, "Ġmedicine": 7246, "Ġhunting": 7247, "missions": 7248, "Ġhousing": 7249, "ĠStephen": 7250, "folio": 7251, "His": 7252, "NN": 7253, "TA": 7254, "she": 7255, "zer": 7256, "Ġtiny": 7257, "Ġcock": 7258, "Ġdual": 7259, "Ġham": 7260, "stream": 7261, "Ġisland": 7262, "ĠAff": 7263, "ĠArab": 7264, "ĠPage": 7265, "ĠBoy": 7266, "ĠBilyeu": 7267, "Ġproof": 7268, "ĠDig": 7269, "ĠFR": 7270, "ĠFather": 7271, "ĠGi": 7272, "Ġshower": 7273, "Ġsuc": 7274, "ghan": 7275, "Ġadm": 7276, "ĠKent": 7277, "Ġenable": 7278, "Ġoffices": 7279, "Ġ37": 7280, "ervative": 7281, "icals": 7282, "obs": 7283, "Ġprovisions": 7284, "Ġsmell": 7285, "Ġcheese": 7286, "Ġcapable": 7287, "Ġvend": 7288, "anna": 7289, "iscal": 7290, "Ġphotograph": 7291, "chell": 7292, "Ġsuggests": 7293, "Ġrelationships": 7294, "Ġcandidate": 7295, "Ġprincipal": 7296, "Ġincreasingly": 7297, "Ġsplit": 7298, "Ġmillions": 7299, "ĠSupreme": 7300, "Sm": 7301, "ae": 7302, "car": 7303, "cers": 7304, "iary": 7305, "lah": 7306, "tle": 7307, "âĤ¬": 7308, "Ġtail": 7309, "rec": 7310, "Ġsought": 7311, "atible": 7312, "Ġbow": 7313, "Ġfalse": 7314, "Ġpod": 7315, "Ġpink": 7316, "Ġhang": 7317, "Ġreject": 7318, "ĠIde": 7319, "ĠAS": 7320, "ĠCivil": 7321, "ĠBal": 7322, "ĠWord": 7323, "atell": 7324, "oret": 7325, "ĠEll": 7326, "Ġsharp": 7327, "Ġkilling": 7328, "Ġagricult": 7329, "ĠChair": 7330, "Ġdesired": 7331, "phia": 7332, "urns": 7333, "ologist": 7334, "ĠSean": 7335, "Ġworldwide": 7336, "Ġdefault": 7337, "Ġwinners": 7338, "Ġdesigns": 7339, "erring": 7340, "Ġforever": 7341, "ĠPrice": 7342, "Ġelsewhere": 7343, "venth": 7344, "Ġconsumption": 7345, "Ġdefinition": 7346, "Ġsusp": 7347, "Ġintroduction": 7348, "Ġpriority": 7349, "ĠPlayer": 7350, "Ġsomewhere": 7351, "Ġfantastic": 7352, "Ġconsciousness": 7353, "Ġfreedom": 7354, "Ġtomorrow": 7355, "\")": 7356, "Of": 7357, "Part": 7358, "Where": 7359, "uan": 7360, "iners": 7361, "inte": 7362, "Ġfasc": 7363, "Ġdust": 7364, "icide": 7365, "Ġthin": 7366, "Ġthinks": 7367, "Ġnuclear": 7368, "Ġnarrow": 7369, "ĠAvenue": 7370, "ĠColl": 7371, "amework": 7372, "urious": 7373, "Ġconclusion": 7374, "raham": 7375, "unction": 7376, "ĠEasy": 7377, "Ġvent": 7378, "Ġshoes": 7379, "Ġchat": 7380, "Ġcontained": 7381, "Ġperman": 7382, "ĠItal": 7383, "ensus": 7384, "Ġattorney": 7385, "cience": 7386, "Ġinterface": 7387, "Ġexpenses": 7388, "ĠPlace": 7389, "2009": 7390, "Ġswim": 7391, "Ġprize": 7392, "ĠSmall": 7393, "Ġexistence": 7394, "ĠMarket": 7395, "Ġpresidential": 7396, "Ġconsumer": 7397, "Ġcycle": 7398, "Ġnegot": 7399, "Ġimpressive": 7400, "Ġfatal": 7401, "ĠHelen": 7402, "ĠMagazine": 7403, "Ġinstructions": 7404, "ĠSarah": 7405, "ĠAdvisory": 7406, "Ġstretch": 7407, "Back": 7408, "PP": 7409, "RC": 7410, "lights": 7411, "pire": 7412, "Ġerr": 7413, "Ġast": 7414, "rett": 7415, "erk": 7416, "athered": 7417, "Ġcro": 7418, "itis": 7419, "esh": 7420, "Ġmile": 7421, "Ġnom": 7422, "ĠCH": 7423, "aded": 7424, "Ġstood": 7425, "ĠPS": 7426, "ĠFind": 7427, "ĠRus": 7428, "ĠGames": 7429, "emon": 7430, "ĠJava": 7431, "Ġjack": 7432, "Ġkiss": 7433, "ferences": 7434, "ression": 7435, "intage": 7436, "Ġacting": 7437, "Ġrelax": 7438, "Ġcoordin": 7439, "ĠSection": 7440, "Ġbrill": 7441, "Ġsurf": 7442, "Ġrepresents": 7443, "Ġ03": 7444, "Ġplane": 7445, "Ġdirected": 7446, "Ġexplos": 7447, "ĠManager": 7448, "Ġlogo": 7449, "Ġmixed": 7450, "Ġprinted": 7451, "ĠBroad": 7452, "Ġintegrated": 7453, "Ġinnovative": 7454, "Ġsurrounding": 7455, "Ġclothes": 7456, "Ġfingers": 7457, "ĠLtd": 7458, "ĠLobos": 7459, "Ġatmosphere": 7460, "%)": 7461, "Dav": 7462, "LC": 7463, "after": 7464, "bal": 7465, "cript": 7466, "do": 7467, "rist": 7468, "rition": 7469, "Ġsorry": 7470, "orable": 7471, "Ġdim": 7472, "Ġretain": 7473, "Ġnin": 7474, "otton": 7475, "etic": 7476, "ĠCamer": 7477, "Ġheight": 7478, "ĠPot": 7479, "ĠBas": 7480, "ĠWas": 7481, "Ġprohib": 7482, "ĠFre": 7483, "rage": 7484, "istant": 7485, "unes": 7486, "ĠLittle": 7487, "Ġplot": 7488, "ĠKar": 7489, "ĠStew": 7490, "ublished": 7491, "Ġresolution": 7492, "Ġdisaster": 7493, "ĠVery": 7494, "Ġ400": 7495, "weight": 7496, "Ġempt": 7497, "phy": 7498, "Ġassault": 7499, "Ġdiscrim": 7500, "Ġinterior": 7501, "199": 7502, "Ġharder": 7503, "Ġequival": 7504, "Ġunto": 7505, "Ġeffectively": 7506, "Ġ150": 7507, "Ġpromise": 7508, "Ġexpectations": 7509, "Ġindustrial": 7510, "Ġwriters": 7511, "Ġtraveling": 7512, "Ġcausing": 7513, "nesota": 7514, "Ġpublish": 7515, "ĠNext": 7516, "Ġprotected": 7517, "Ġinnings": 7518, "Ġpleasure": 7519, "Ġsuspend": 7520, "Ġcarrying": 7521, "Ġscientists": 7522, "Ġinspired": 7523, "Ġpenalty": 7524, "Ġinnovation": 7525, "ĠAtlantic": 7526, "stein": 7527, "Ġsuddenly": 7528, "lahoma": 7529, "65": 7530, "Bu": 7531, "TER": 7532, "crib": 7533, "draw": 7534, "law": 7535, "pen": 7536, "sub": 7537, "heast": 7538, "Ġlatter": 7539, "Ġlung": 7540, "Ġeast": 7541, "ĠSH": 7542, "ĠSaf": 7543, "ĠTest": 7544, "igs": 7545, "ilty": 7546, "Ġstim": 7547, "cend": 7548, "ighth": 7549, "ĠLind": 7550, "Ġracing": 7551, "ĠGard": 7552, "uster": 7553, "Ġshots": 7554, "aph": 7555, "iece": 7556, "Ġ33": 7557, "erving": 7558, "ĠChief": 7559, "Ġ42": 7560, "Ġknowing": 7561, "erman": 7562, "Ġremark": 7563, "Ġcolumn": 7564, "ĠDev": 7565, "Web": 7566, "Ġpointed": 7567, "ieties": 7568, "Ġfoundation": 7569, "ĠAsian": 7570, "ĠPlus": 7571, "oked": 7572, "Ġprofit": 7573, "Ġdelight": 7574, "Ġbasically": 7575, "iamond": 7576, "ĠCountry": 7577, "Ġprofessor": 7578, "Ġelectronic": 7579, "Ġclaimed": 7580, "Ġnecessarily": 7581, "Ġrequests": 7582, "Ġclosing": 7583, "Ġindicate": 7584, "haust": 7585, "Ġlucky": 7586, "ĠDetroit": 7587, "Ġelevator": 7588, "Nov": 7589, "rine": 7590, "ugh": 7591, "inent": 7592, "nda": 7593, "Ġpupp": 7594, "Ġlien": 7595, "adow": 7596, "Ġupper": 7597, "Ġassemb": 7598, "ĠWhether": 7599, "ĠHug": 7600, "Ġconver": 7601, "Ġexceed": 7602, "ĠOpt": 7603, "Ġlemon": 7604, "aret": 7605, "ogy": 7606, "Ġages": 7607, "Ġ38": 7608, "ruce": 7609, "Ġarrive": 7610, "ĠItaly": 7611, "Ġprepar": 7612, "Ġblocks": 7613, "comm": 7614, "athy": 7615, "Ġ64": 7616, "ĠSelect": 7617, "ounce": 7618, "Ġdifferences": 7619, "Ġstring": 7620, "ĠAsia": 7621, "Ġ02": 7622, "ĠPhill": 7623, "Ġcere": 7624, "Ġinjured": 7625, "Ġdestination": 7626, "ĠTranslation": 7627, "Ġthousand": 7628, "inema": 7629, "ĠPennsylvania": 7630, "ĠCPAP": 7631, "Ġtonight": 7632, "adelphia": 7633, "ĠDiego": 7634, "ĠElizabeth": 7635, "Ge": 7636, "Mark": 7637, "Many": 7638, "aun": 7639, "bell": 7640, "hour": 7641, "tes": 7642, "ÃĤ": 7643, "Ġau": 7644, "Ġsouthern": 7645, "iser": 7646, "Ġhack": 7647, "Ġholy": 7648, "ashes": 7649, "Ġthorough": 7650, "Ġgonna": 7651, "ĠSat": 7652, "ĠSanta": 7653, "Ġbeef": 7654, "ĠCR": 7655, "Ġstuck": 7656, "ĠBed": 7657, "ĠBrazil": 7658, "ĠDrive": 7659, "Ġsending": 7660, "Ġorange": 7661, "uls": 7662, "estion": 7663, "ĠLow": 7664, "umer": 7665, "ĠOx": 7666, "Ġchoices": 7667, "oding": 7668, "Ġanymore": 7669, "Ġspark": 7670, "ĠChildren": 7671, "Thank": 7672, "Ġentering": 7673, "Ġfinds": 7674, "iversary": 7675, "ĠClinton": 7676, "Ġlists": 7677, "Ġauto": 7678, "Ġcontinuing": 7679, "iki": 7680, "Ġintellectual": 7681, "ĠTherefore": 7682, "ĠSox": 7683, "Ġcontrols": 7684, "Ġhosting": 7685, "Ġtemporary": 7686, "Ġmagic": 7687, "Ġregardless": 7688, "Ġrecognize": 7689, "Ġachieved": 7690, "Ġpianos": 7691, "Ġawarded": 7692, "Ġmanufacturing": 7693, "ĠPortland": 7694, "Ġappointment": 7695, "Ġvirtual": 7696, "Ġvenue": 7697, "Ġclinical": 7698, "ĠProfessor": 7699, "Ġinstrument": 7700, "ĠIllinois": 7701, "ĠGilbert": 7702, "68": 7703, "Car": 7704, "Dis": 7705, "Im": 7706, "Per": 7707, "Search": 7708, "VER": 7709, "bow": 7710, "bration": 7711, "epend": 7712, "gree": 7713, "rich": 7714, "Ġtape": 7715, "ati": 7716, "ndry": 7717, "Ġpitc": 7718, "Ġmerc": 7719, "ione": 7720, "idays": 7721, "etary": 7722, "ĠAh": 7723, "ĠCat": 7724, "ĠBush": 7725, "Ġwealth": 7726, "ĠDE": 7727, "rape": 7728, "ĠNBA": 7729, "ĠEnd": 7730, "ĠOak": 7731, "elcome": 7732, "Ġplain": 7733, "active": 7734, "Ġcompens": 7735, "ailed": 7736, "Ġaggress": 7737, "Ġrecall": 7738, "orders": 7739, "Ġarmy": 7740, "ensity": 7741, "Ġguitar": 7742, "upid": 7743, "ĠForm": 7744, "Ġgrass": 7745, "Ġintent": 7746, "otted": 7747, "Ġhealthcare": 7748, "ĠCentre": 7749, "Ġdrag": 7750, "Ġ1997": 7751, "Ġconstantly": 7752, "ĠAmend": 7753, "Ġhosted": 7754, "ĠGuide": 7755, "Once": 7756, "ĠCorporation": 7757, "Ġinjuries": 7758, "Ġsensitive": 7759, "Ġrevolution": 7760, "Ġticket": 7761, "Ġopinions": 7762, "ĠDaniel": 7763, "Art": 7764, "Ġliterature": 7765, "Ġrepeated": 7766, "ĠToronto": 7767, "Ġmistake": 7768, "Ġentitled": 7769, "ĠOregon": 7770, "93": 7771, "Even": 7772, "bu": 7773, "bel": 7774, "bles": 7775, "ded": 7776, "gov": 7777, "ja": 7778, "li": 7779, "wen": 7780, "war": 7781, "Ġtall": 7782, "Ġcounsel": 7783, "esides": 7784, "Ġbomb": 7785, "Ġfoul": 7786, "Ġflying": 7787, "Ġpushed": 7788, "Ġnomin": 7789, "ĠSk": 7790, "ĠTool": 7791, "ether": 7792, "ĠCast": 7793, "iments": 7794, "Ġanx": 7795, "ĠWay": 7796, "isted": 7797, "ĠNorthern": 7798, "ĠGolf": 7799, "osit": 7800, "ĠOK": 7801, "Ġlets": 7802, "Ġupgrade": 7803, "ailable": 7804, "Ġdismiss": 7805, "icket": 7806, "Ġsomebody": 7807, "ĠChamber": 7808, "ruits": 7809, "Ġunderstood": 7810, "Ġsla": 7811, "ĠForce": 7812, "Ġdevelopers": 7813, "Ġstrings": 7814, "Ġcapabilities": 7815, "Ġresulting": 7816, "aturally": 7817, "ĠExpress": 7818, "ĠSpain": 7819, "ĠConstitution": 7820, "anned": 7821, "Ġyounger": 7822, "Ġdealing": 7823, "Ġconcert": 7824, "ĠBox": 7825, "Ġaddresses": 7826, "Ġtempl": 7827, "Ġcompliance": 7828, "ĠMrs": 7829, "elta": 7830, "ĠMinnesota": 7831, "ĠSenator": 7832, "Ġmatches": 7833, "Ġordin": 7834, "Ġcollected": 7835, "Ġdiseases": 7836, "Ġhorror": 7837, "Ġconcepts": 7838, "Ġimplementation": 7839, "Ġterrible": 7840, "Ġriver": 7841, "ĠFuneral": 7842, "Ġspokesman": 7843, "ĠSecretary": 7844, "Ġbrilliant": 7845, "UB": 7846, "dog": 7847, "Ġsight": 7848, "Ġwines": 7849, "Ġwarn": 7850, "Ġcute": 7851, "oric": 7852, "Ġmixt": 7853, "Ġly": 7854, "Ġlux": 7855, "ĠTit": 7856, "owered": 7857, "imore": 7858, "char": 7859, "ĠDark": 7860, "ĠFY": 7861, "ĠFord": 7862, "rient": 7863, "ĠNE": 7864, "ĠGirl": 7865, "ĠEnt": 7866, "ocus": 7867, "Ġalcohol": 7868, "earing": 7869, "oster": 7870, "ĠUr": 7871, "pled": 7872, "Ġsaved": 7873, "ĠKenn": 7874, "ĠThough": 7875, "club": 7876, "eping": 7877, "Ġtrig": 7878, "Ġunem": 7879, "Ġuniverse": 7880, "Ġspots": 7881, "ounded": 7882, "Ġblank": 7883, "Ġshouldn": 7884, "Ġtrail": 7885, "Ġbridge": 7886, "Ġ75": 7887, "Ġreader": 7888, "ĠClin": 7889, "Ġmarked": 7890, "Ġweekly": 7891, "Ġputs": 7892, "ĠExecutive": 7893, "ATA": 7894, "Ġengaged": 7895, "Ġconcerning": 7896, "Ġpainting": 7897, "Ġsubjects": 7898, "Ġradiation": 7899, "Ġjudgment": 7900, "Ġscores": 7901, "Ġvotes": 7902, "--------": 7903, "Ġbirthday": 7904, "Ġguarantee": 7905, "MI": 7906, "Note": 7907, "craft": 7908, "rac": 7909, "uct": 7910, "rete": 7911, "Ġcable": 7912, "Ġbaking": 7913, "ington": 7914, "aron": 7915, "Ġdad": 7916, "Ġhint": 7917, "asters": 7918, "Ġrein": 7919, "ĠIre": 7920, "Ġstations": 7921, "kel": 7922, "ĠWH": 7923, "ĠWright": 7924, "ĠDod": 7925, "ĠHor": 7926, "ĠHollywood": 7927, "Ġsections": 7928, "ĠRub": 7929, "raid": 7930, "ĠGar": 7931, "ĠGree": 7932, "Ġvital": 7933, "Ġshift": 7934, "ĠOcc": 7935, "Ġlegend": 7936, "ĠâĢ¢": 7937, "Ġdoors": 7938, "ĠKra": 7939, "class": 7940, "Ġrecover": 7941, "Ġsheet": 7942, "Ġ43": 7943, "Ġ55": 7944, "Ġdesire": 7945, "rowse": 7946, "Ġregions": 7947, "Ġrelation": 7948, "Ġfinance": 7949, "Ġmini": 7950, "Ġminister": 7951, "ounge": 7952, "Ġbelt": 7953, "Ġexpansion": 7954, "Ġ07": 7955, "Ġgenerate": 7956, "Ġbreaking": 7957, "Ġtestim": 7958, "Ġvaluable": 7959, "Ġkinds": 7960, "Ġmarks": 7961, "2008": 7962, "def": 7963, "Ġindustries": 7964, "Ġkeyboard": 7965, "Ġclosely": 7966, "OUN": 7967, "Ġcreates": 7968, "ĠAfghan": 7969, "Ġjoining": 7970, "ĠEdward": 7971, "Ġtowns": 7972, "Ġnetworking": 7973, "Ġlinked": 7974, "Ġgenes": 7975, "News": 7976, "Ġconvention": 7977, "Ġindicates": 7978, "Ġresponded": 7979, "Ġpremium": 7980, "Ġliterally": 7981, "Ġdatas": 7982, "Ġsecretary": 7983, "Ġpreferred": 7984, "Ġgranted": 7985, "Ġobtained": 7986, "ĠMedicare": 7987, "ĠMcCain": 7988, "Ġrapidly": 7989, "Ġconflict": 7990, "Reviewer": 7991, "swered": 7992, "'.": 7993, "Ear": 7994, "Rel": 7995, "Wed": 7996, "bass": 7997, "mate": 7998, "post": 7999, "rum": 8000, "sm": 8001, "su": 8002, "tra": 8003, "zy": 8004, "Ġbench": 8005, "ouch": 8006, "arity": 8007, "Ġlies": 8008, "ĠCurrent": 8009, "adr": 8010, "ceived": 8011, "celer": 8012, "ĠHou": 8013, "through": 8014, "ĠNote": 8015, "ĠGal": 8016, "ĠGreek": 8017, "Ġexternal": 8018, "Ġexhaust": 8019, "ĠET": 8020, "emet": 8021, "Ġvit": 8022, "Ġsuf": 8023, "allas": 8024, "Ġjur": 8025, "Ġtea": 8026, "ĠThree": 8027, "ĠStore": 8028, "Ġdiscipl": 8029, "Ġhadn": 8030, "Ġunw": 8031, "Ġunus": 8032, "ervations": 8033, "Ġ1970": 8034, "Ġ41": 8035, "ĠUnfortunately": 8036, "Ġguidelines": 8037, "Ġ65": 8038, "ellant": 8039, "Ġopens": 8040, "athers": 8041, "Ġdiscret": 8042, "ĠLevel": 8043, "Ġposting": 8044, "ĠAsh": 8045, "Ġreput": 8046, "Ġheading": 8047, "ucky": 8048, "ĠExper": 8049, "Ġbehalf": 8050, "hodes": 8051, "Ġcompete": 8052, "roduction": 8053, "Ġwarning": 8054, "Ġcircle": 8055, "Ġtypical": 8056, "ĠStudio": 8057, "ĠSciences": 8058, "altimore": 8059, "Ġsurvive": 8060, "Ġqualified": 8061, "Ġsilver": 8062, "Ġcelebrate": 8063, "Ġinformed": 8064, "Ġspiritual": 8065, "secutive": 8066, "Ġadopted": 8067, "ĠThanksgiving": 8068, "Ġtackles": 8069, "ĠCubs": 8070, "ĠTerms": 8071, "ĠRussian": 8072, "ĠiPad": 8073, "Ġphilosophy": 8074, "ĠProtection": 8075, "Ġconsequences": 8076, "ĠYanke": 8077, "Ġdiscretion": 8078, "Follow": 8079, "MC": 8080, "Orig": 8081, "Point": 8082, "Su": 8083, "XT": 8084, "bors": 8085, "iot": 8086, "looking": 8087, "oard": 8088, "Â°": 8089, "rer": 8090, "Ġsizes": 8091, "Ġocean": 8092, "Ġcake": 8093, "eness": 8094, "Ġfle": 8095, "Ġfulf": 8096, "Ġfirms": 8097, "Ġpump": 8098, "Ġmuseum": 8099, "asant": 8100, "ĠTony": 8101, "ache": 8102, "Ġye": 8103, "olt": 8104, "ĠPOS": 8105, "ĠBud": 8106, "Ġanswered": 8107, "ĠDate": 8108, "ĠHay": 8109, "ĠHope": 8110, "ĠFurther": 8111, "ĠNik": 8112, "ĠGP": 8113, "Ġexists": 8114, "ĠER": 8115, "ĠEmer": 8116, "Ġadapt": 8117, "Ġresort": 8118, "ĠVan": 8119, "Ġunion": 8120, "Ġspeakers": 8121, "Ġroof": 8122, "itts": 8123, "clude": 8124, "icted": 8125, "comes": 8126, "Ġbug": 8127, "pected": 8128, "Ġtransaction": 8129, "aze": 8130, "Ġcareful": 8131, "Ġboards": 8132, "Ġproviders": 8133, "Ġdistingu": 8134, "Ġsky": 8135, "Ġtechnique": 8136, "Ġpotentially": 8137, "Ġwebsites": 8138, "Ġtrend": 8139, "ICE": 8140, "Ġfalls": 8141, "Ġimprovement": 8142, "engers": 8143, "ĠHarry": 8144, "ĠFinanc": 8145, "Ġvoted": 8146, "Ġultimate": 8147, "Ġmachines": 8148, "Ġera": 8149, "Ġcollaboration": 8150, "Ġemotional": 8151, "Ġboost": 8152, "ĠHarris": 8153, "ĠMitchell": 8154, "Ġequivalent": 8155, "Will": 8156, "cut": 8157, "pes": 8158, "yard": 8159, "erie": 8160, "Ġwra": 8161, "Ġfest": 8162, "ĠTR": 8163, "ĠTry": 8164, "ĠMur": 8165, "ĠMult": 8166, "iration": 8167, "ĠBra": 8168, "ĠBul": 8169, "Ġancient": 8170, "ĠDu": 8171, "ĠFact": 8172, "ĠEver": 8173, "emic": 8174, "asts": 8175, "Ġbutt": 8176, "Ġworried": 8177, "Ġrescue": 8178, "icking": 8179, "Ġrecy": 8180, "Ġscream": 8181, "obb": 8182, "Ġactor": 8183, "Ġeveryday": 8184, "Ġstudio": 8185, "Ġremem": 8186, "Ġlesson": 8187, "Ġ1990": 8188, "Ġsalad": 8189, "Ġlargely": 8190, "ĠGuard": 8191, "Ġmanaging": 8192, "ĠPerform": 8193, "Ġabsor": 8194, "Ġcontribute": 8195, "Ġintroduce": 8196, "IDS": 8197, "Ġlanguages": 8198, "ILL": 8199, "Ġintegration": 8200, "Ġhumans": 8201, "ĠHelp": 8202, "ĠMaryland": 8203, "Ġexpertise": 8204, "Ġbattery": 8205, "Ġfurniture": 8206, "ĠPrize": 8207, "Ġmanufacturer": 8208, "ĠMountain": 8209, "Ġjuice": 8210, "Ġcontrovers": 8211, "Ġmerely": 8212, "Ġsucceed": 8213, "79": 8214, "Gl": 8215, "JC": 8216, "Like": 8217, "Mar": 8218, "Sim": 8219, "TE": 8220, "ds": 8221, "fish": 8222, "rid": 8223, "Ġsacr": 8224, "Ġokay": 8225, "Ġpin": 8226, "Ġdining": 8227, "Ġlip": 8228, "Ġgod": 8229, "ĠSon": 8230, "ĠAG": 8231, "Ġupload": 8232, "ĠMill": 8233, "ĠMarsh": 8234, "Ġstupid": 8235, "ĠBon": 8236, "Ġweird": 8237, "ĠHas": 8238, "uling": 8239, "ĠLA": 8240, "quarters": 8241, "ocated": 8242, "Ġadj": 8243, "Ġcompare": 8244, "ĠStation": 8245, "ĠVa": 8246, "Ġrecipes": 8247, "anches": 8248, "Ġflag": 8249, "Ġeverybody": 8250, "Ġcoaches": 8251, "Ġguilty": 8252, "riter": 8253, "Ġpresents": 8254, "Ġbrush": 8255, "Ġmemories": 8256, "Ġcrash": 8257, "bered": 8258, "Ġ127": 8259, "Ġdistur": 8260, "ĠAllen": 8261, "Ġexplan": 8262, "ĠSpirit": 8263, "anny": 8264, "Ġfaced": 8265, "Ġoperate": 8266, "Ġimproving": 8267, "Ġforecast": 8268, "Ġmotiv": 8269, "Ġtitles": 8270, "ĠTraining": 8271, "Ġattempts": 8272, "Ġchampion": 8273, "Ġthrowing": 8274, "ĠGolden": 8275, "Ġconstitution": 8276, "Ġexclusive": 8277, "Ġclothing": 8278, "Ġtelephone": 8279, "brook": 8280, "Ġsatisfied": 8281, "ĠFilm": 8282, "Ġmoist": 8283, "Ġfranchise": 8284, "Ġsymptoms": 8285, "atellite": 8286, "Ġsuffered": 8287, "Mon": 8288, "rated": 8289, "rite": 8290, "Â·": 8291, "Ġriv": 8292, "Ġbass": 8293, "Ġfiscal": 8294, "Ġdrives": 8295, "Ġreven": 8296, "Ġgap": 8297, "ĠIan": 8298, "ĠTable": 8299, "ĠTurn": 8300, "ĠCred": 8301, "ĠCru": 8302, "irk": 8303, "ĠBY": 8304, "ĠHERE": 8305, "Ġconcluded": 8306, "ĠRoute": 8307, "Ġ(âĢľ": 8308, "ĠLo": 8309, "ĠLocal": 8310, "ĠNick": 8311, "ĠNations": 8312, "ĠExt": 8313, "Ġvast": 8314, "Ġvulner": 8315, "Ġcompr": 8316, "izon": 8317, "Ġdisag": 8318, "Ġdisability": 8319, "ickets": 8320, "Ġrecon": 8321, "ocking": 8322, "Ġgoods": 8323, "Ġsymb": 8324, "Ġattrib": 8325, "Ġfindings": 8326, "Ġframes": 8327, "ĠShould": 8328, "Ġrepair": 8329, "Ġ06": 8330, "Ġheaded": 8331, "Ġcentre": 8332, "ĠConnect": 8333, "ĠResort": 8334, "ircraft": 8335, "Ġswing": 8336, "Ġtaxp": 8337, "Ġnetworks": 8338, "ĠEdition": 8339, "Ġdetermination": 8340, "Ġstatistics": 8341, "ĠCorp": 8342, "Ġcommunicate": 8343, "burgh": 8344, "Ġlayer": 8345, "ĠKingdom": 8346, "Ġvacation": 8347, "Ġmountain": 8348, "Ġdomestic": 8349, "Ġfraud": 8350, "Ġmerch": 8351, "Ġdynamic": 8352, "ĠItalian": 8353, ".;": 8354, "June": 8355, "Ke": 8356, "Mc": 8357, "don": 8358, "oen": 8359, "oir": 8360, "page": 8361, "zes": 8362, "Ġ00": 8363, "Ġtub": 8364, "Ġtiss": 8365, "Ġawards": 8366, "incess": 8367, "Ġoven": 8368, "Ġbone": 8369, "entle": 8370, "star": 8371, "Ġears": 8372, "uten": 8373, "ĠCab": 8374, "owed": 8375, "ami": 8376, "irts": 8377, "ifies": 8378, "ĠDelta": 8379, "istent": 8380, "ĠNic": 8381, "ĠNumber": 8382, "ĠED": 8383, "emption": 8384, "asted": 8385, "Ġwheel": 8386, "apes": 8387, "Ġneut": 8388, "ogether": 8389, "Ġcomprom": 8390, "ĠThrough": 8391, "ĠStill": 8392, "ĠStadium": 8393, "Ġrecip": 8394, "Ġovers": 8395, "Ġscan": 8396, "Ġprime": 8397, "ampa": 8398, "Ġcolon": 8399, "Ġgreatly": 8400, "Ġassign": 8401, "ĠProcess": 8402, "Ġskill": 8403, "Ġorganized": 8404, "Ġgovernor": 8405, "letter": 8406, "Ġ1995": 8407, "Ġphotograp": 8408, "Ġparam": 8409, "Ġsuccessfully": 8410, "Ġinvolving": 8411, "Ġdeaths": 8412, "Ġsuperior": 8413, "Ġargue": 8414, "Ġordinary": 8415, "Ġheavily": 8416, "ĠScient": 8417, "Ġbedroom": 8418, "Before": 8419, "Ġafraid": 8420, "Ġloaded": 8421, "Ġstruggle": 8422, "Ġsupplies": 8423, "Ġbreath": 8424, "Ġmirror": 8425, "ĠLinux": 8426, "Ġefficiency": 8427, "Ġeligible": 8428, "ĠRussell": 8429, "emetery": 8430, "AG": 8431, "CM": 8432, "Comp": 8433, "Find": 8434, "Great": 8435, "ez": 8436, "mont": 8437, "Ġicon": 8438, "Ġtheater": 8439, "erts": 8440, "Ġsin": 8441, "Ġwet": 8442, "itarian": 8443, "Ġbatt": 8444, "Ġbicy": 8445, "aning": 8446, "Ġdiversity": 8447, "Ġlake": 8448, "ĠML": 8449, "ĠPil": 8450, "ĠBaltimore": 8451, "Ġasks": 8452, "ĠWash": 8453, "ifier": 8454, "ĠHT": 8455, "Ġconsecutive": 8456, "ĠFIG": 8457, "ĠRose": 8458, "Ġdeploy": 8459, "ĠLyn": 8460, "Ġdoctors": 8461, "Ġads": 8462, "Ġadap": 8463, "Ġimplic": 8464, "onder": 8465, "Ġoverw": 8466, "ĠChapter": 8467, "inking": 8468, "Ġprinciples": 8469, "Ġshoulder": 8470, "Ġraising": 8471, "Ġchest": 8472, "oken": 8473, "month": 8474, "Ġmembership": 8475, "2002": 8476, "ITH": 8477, "Ġstronger": 8478, "Ġtrends": 8479, "Ġrequirement": 8480, "Ġbreakfast": 8481, "ĠHighway": 8482, "ĠMetro": 8483, "Ġthreatened": 8484, "ĠPhiladelphia": 8485, "Ġsemi": 8486, "ĠAtlanta": 8487, "Ġdrinking": 8488, "ĠJersey": 8489, "Ġaccomplish": 8490, "Ġeggs": 8491, "Ġromantic": 8492, "Ġpowder": 8493, "Ġsubsid": 8494, "Ġparadox": 8495, "ĠAmendment": 8496, "86": 8497, "Aug": 8498, "CR": 8499, "Good": 8500, "NE": 8501, "gie": 8502, "lined": 8503, "pack": 8504, "then": 8505, "vision": 8506, "Ġsessions": 8507, "aters": 8508, "ito": 8509, "asks": 8510, "Ġlips": 8511, "Ġreaching": 8512, "stra": 8513, "Ġgig": 8514, "ĠIM": 8515, "ĠSem": 8516, "Ġbeer": 8517, "achel": 8518, "ĠCore": 8519, "immer": 8520, "sem": 8521, "ctic": 8522, "ila": 8523, "ilation": 8524, "ĠPay": 8525, "ĠPict": 8526, "ĠBry": 8527, "ĠDise": 8528, "ĠLy": 8529, "ĠGarden": 8530, "ĠGallery": 8531, "Ġsuck": 8532, "Ġsaving": 8533, "Ġunif": 8534, "Ġtrained": 8535, "riting": 8536, "Ġopio": 8537, "Ġtransp": 8538, "Ġaviation": 8539, "Ġpersonnel": 8540, "Ġreturning": 8541, "Ġconfront": 8542, "Ġavailability": 8543, "ĠCollection": 8544, "Ġfeelings": 8545, "ĠUSB": 8546, "Ġfacilit": 8547, "Ġdriven": 8548, "Ġapplicable": 8549, "Ġconstant": 8550, "Ġdiscussions": 8551, "ĠEmpire": 8552, "Ġconsiderable": 8553, "Ġrepresentation": 8554, "Ġwondering": 8555, "Ġopposite": 8556, "Ġrecognition": 8557, "ĠMissouri": 8558, "Ġsurviv": 8559, "Ġmaintained": 8560, "Ġhyd": 8561, "Ġdistributed": 8562, "Ġsettled": 8563, "Ġblend": 8564, "Ġreligion": 8565, "ĠDemocratic": 8566, "Ġpatterns": 8567, "ĠMedicine": 8568, "Ġtunnel": 8569, "Ġconcentration": 8570, "Ġprecise": 8571, "ĠSilver": 8572, "Ġincredible": 8573, "Ġcontrolled": 8574, "ĠOklahoma": 8575, "Ġfavourite": 8576, "ĠStewart": 8577, "ĠIreland": 8578, ".-": 8579, "61": 8580, "Book": 8581, "HL": 8582, "IB": 8583, "des": 8584, "made": 8585, "ua": 8586, "wan": 8587, "Ġtact": 8588, "Ġbands": 8589, "Ġmob": 8590, "Ġhung": 8591, "Ġnerv": 8592, "stery": 8593, "uters": 8594, "owa": 8595, "amel": 8596, "ĠMap": 8597, "ĠMov": 8598, "olved": 8599, "ĠPut": 8600, "ĠBall": 8601, "Ġrising": 8602, "ĠGreg": 8603, "ĠESP": 8604, "Ġadequ": 8605, "ĠYet": 8606, "Ġmanip": 8607, "Ġdispl": 8608, "Ġuncertain": 8609, "veland": 8610, "ordan": 8611, "Ġscoring": 8612, "Ġconsists": 8613, "Ġproducer": 8614, "Ġcarbon": 8615, "Ġadvances": 8616, "Ġcourts": 8617, "Ġauthent": 8618, "Ġ04": 8619, "Ġmonthly": 8620, "Ġhardly": 8621, "ĠResp": 8622, "bridge": 8623, "ropri": 8624, "Ġidentification": 8625, "Ġhousehold": 8626, "ĠEmployment": 8627, "Ġ:)": 8628, "Ġpacked": 8629, "Ġbarrel": 8630, "Ġsearching": 8631, "Ġopposed": 8632, "Ġopposition": 8633, "Ġcontributed": 8634, "Ġexception": 8635, "Ġcelebration": 8636, "ĠMethod": 8637, "Ġsettings": 8638, "ĠMembers": 8639, "ĠCaptain": 8640, "Ġdollar": 8641, "Ġaccuracy": 8642, "Ġreferred": 8643, "ĠSummer": 8644, "Ġcertific": 8645, "Ġdelicious": 8646, "Ġvocational": 8647, "Ġtestimony": 8648, "ĠHouston": 8649, "73": 8650, "Aust": 8651, "cal": 8652, "case": 8653, "dated": 8654, "hman": 8655, "Ġ?": 8656, "ĠÃ": 8657, "Ġcul": 8658, "Ġcass": 8659, "Ġbot": 8660, "Ġbond": 8661, "Ġphen": 8662, "Ġpapers": 8663, "ani": 8664, "Ġhidden": 8665, "Ġthrew": 8666, "Ġlaid": 8667, "Ġnobody": 8668, "rog": 8669, "ĠSS": 8670, "ĠSony": 8671, "uties": 8672, "oting": 8673, "ĠAwards": 8674, "ĠAAA": 8675, "ĠCre": 8676, "ĠCas": 8677, "ĠCand": 8678, "ĠCape": 8679, "sex": 8680, "Ġstead": 8681, "ĠPA": 8682, "ĠPriv": 8683, "ĠDNA": 8684, "ĠRh": 8685, "ĠRo": 8686, "ĠRand": 8687, "ĠRangers": 8688, "Ġwash": 8689, "ĠLAN": 8690, "ĠLiber": 8691, "Ġrum": 8692, "Ġrack": 8693, "Ġchose": 8694, "ivals": 8695, "Ġjet": 8696, "apore": 8697, "owned": 8698, "Ġspell": 8699, "rena": 8700, "Ġshel": 8701, "Ġblind": 8702, "Ġreliable": 8703, "Ġphr": 8704, "Ġcoal": 8705, "tainment": 8706, "ĠSea": 8707, "Ġbrut": 8708, "Ġsimpl": 8709, "Ġpassengers": 8710, "Ġ05": 8711, "iking": 8712, "Ġestimate": 8713, "Ġengage": 8714, "ĠWorks": 8715, "Ġelected": 8716, "Ġstrongly": 8717, "Ġaddressed": 8718, "Ġportfolio": 8719, "Ġphysician": 8720, "Ġcleaning": 8721, "ĠStudents": 8722, "Ġlosses": 8723, "Ġexamine": 8724, "Ġexpression": 8725, "blog": 8726, "ĠFinally": 8727, "aptop": 8728, "ĠInte": 8729, "Ġgender": 8730, "Ġloans": 8731, "ĠBuilding": 8732, "ĠCleveland": 8733, "ĠAirport": 8734, "Ġirre": 8735, "Ġveteran": 8736, "Ġdomain": 8737, "Ġestimates": 8738, "ĠRadio": 8739, "Ġsuffering": 8740, "Ġstrategies": 8741, "Ġstyles": 8742, "Ġdialogue": 8743, "ĠJonathan": 8744, "Ġacknowled": 8745, "Ġcontemporary": 8746, ")|": 8747, "2000": 8748, "63": 8749, "69": 8750, "Cons": 8751, "El": 8752, "HA": 8753, "IES": 8754, "OG": 8755, "Pre": 8756, "Tra": 8757, "UC": 8758, "has": 8759, "uits": 8760, "vi": 8761, "wing": 8762, "yers": 8763, "Ġrib": 8764, "Ġtent": 8765, "Ġwake": 8766, "orus": 8767, "isms": 8768, "oured": 8769, "Ġpra": 8770, "Ġrender": 8771, "Ġnations": 8772, "rock": 8773, "ĠIss": 8774, "ĠSav": 8775, "ĠTal": 8776, "utic": 8777, "Ġyield": 8778, "ĠME": 8779, "ĠPa": 8780, "ĠBart": 8781, "ĠBarn": 8782, "ĠBern": 8783, "ĠBaby": 8784, "ĠWinter": 8785, "iffe": 8786, "Ġprosecut": 8787, "ĠDa": 8788, "ĠDave": 8789, "ĠHa": 8790, "ĠRog": 8791, "ĠRoll": 8792, "abama": 8793, "ĠJason": 8794, "ĠKa": 8795, "ĠKaren": 8796, "Ġnewly": 8797, "Ġarbit": 8798, "Ġtwenty": 8799, "Ġflavor": 8800, "Ġbuff": 8801, "Ġproducers": 8802, "ĠRef": 8803, "Ġphones": 8804, "atively": 8805, "omething": 8806, "ĠBlu": 8807, "bean": 8808, "Ġapproaches": 8809, "otten": 8810, "Ġgovernments": 8811, "âĢ¦.": 8812, "Ġsolve": 8813, "Ġemployed": 8814, "Ġinfl": 8815, "ĠReserve": 8816, "ARE": 8817, "Ġsupplement": 8818, "Ġreduction": 8819, "Ġreplied": 8820, "ĠEditor": 8821, "ĠDespite": 8822, "Ġtablet": 8823, "Ġassociation": 8824, "winning": 8825, "Sept": 8826, "ĠArea": 8827, "ĠBooks": 8828, "Ġgolden": 8829, "Ġprinciple": 8830, "Ġwaters": 8831, "Ġcolleges": 8832, "Ġchairman": 8833, "Ġangry": 8834, "Ġcomparison": 8835, "Ġflexible": 8836, "Ġpermanent": 8837, "Ġnervous": 8838, "Did": 8839, "Each": 8840, "FF": 8841, "NC": 8842, "QU": 8843, "Rem": 8844, "SU": 8845, "Time": 8846, "gener": 8847, "hire": 8848, "ni": 8849, "uis": 8850, "Ã¸": 8851, "real": 8852, "Ġske": 8853, "Ġol": 8854, "iterr": 8855, "alin": 8856, "Ġmood": 8857, "Ġdivid": 8858, "oming": 8859, "Ġlift": 8860, "Ġnose": 8861, "Ġease": 8862, "idance": 8863, "ĠAve": 8864, "ĠCra": 8865, "ĠMember": 8866, "Ġwithdraw": 8867, "ĠPow": 8868, "ĠPack": 8869, "ĠBad": 8870, "ĠWine": 8871, "ership": 8872, "ĠDallas": 8873, "ĠHom": 8874, "ĠHand": 8875, "ĠReds": 8876, "ulpt": 8877, "udes": 8878, "Ġwhenever": 8879, "Ġusage": 8880, "Ġenables": 8881, "ĠStock": 8882, "Ġimpl": 8883, "Ġscrew": 8884, "Ġunderw": 8885, "athon": 8886, "Ġcolour": 8887, "ologists": 8888, "Ġdecent": 8889, "ĠClient": 8890, "Ġprovider": 8891, "Ġextension": 8892, "Ġintense": 8893, "Ġoblig": 8894, "Ġrefused": 8895, "Ġperforming": 8896, "Ġmainly": 8897, "ĠPhot": 8898, "Ġsolo": 8899, "anean": 8900, "Ġreviewed": 8901, "Ġoccurs": 8902, "Ġdrinks": 8903, "Ġparalle": 8904, "Ġresponses": 8905, "Ġlandscape": 8906, "ĠBarb": 8907, "Ġhopefully": 8908, "Ġsuggestions": 8909, "Ġcriteria": 8910, "ĠWarner": 8911, "ĠKeep": 8912, "Ġinstallation": 8913, "Ġcollective": 8914, "ĠReading": 8915, "Ġdeadline": 8916, "ompson": 8917, "Ġessentially": 8918, "Ġloan": 8919, "Ġwildlife": 8920, "Ġcruise": 8921, "Ġranked": 8922, "Ġfantasy": 8923, "Ġvirus": 8924, "Ġbarely": 8925, "Ġaccompan": 8926, "ĠCMR": 8927, "ĠGiants": 8928, "Ġmixture": 8929, "April": 8930, "Because": 8931, "July": 8932, "Ob": 8933, "een": 8934, "mo": 8935, "note": 8936, "pat": 8937, "ras": 8938, "uates": 8939, "Ġtor": 8940, "Ġaver": 8941, "nders": 8942, "Ġbars": 8943, "Ġborder": 8944, "Ġmad": 8945, "Ġduty": 8946, "Ġliability": 8947, "Ġreward": 8948, "Ġgentle": 8949, "Ġhem": 8950, "ĠBi": 8951, "ĠBuff": 8952, "ĠHal": 8953, "oore": 8954, "ĠRight": 8955, "ĠRhodes": 8956, "estry": 8957, "ĠNC": 8958, "Ġrating": 8959, "opher": 8960, "Ġanybody": 8961, "Ġdisk": 8962, "achus": 8963, "Ġroles": 8964, "Ġproven": 8965, "Ġremov": 8966, "Ġassume": 8967, "Ġ85": 8968, "ceptions": 8969, "ĠLeon": 8970, "Ġbooking": 8971, "Ġfounded": 8972, "Ġdefine": 8973, "Ġreporter": 8974, "Ġcaptain": 8975, "conf": 8976, "ĠOracle": 8977, "AND": 8978, "Ġmargin": 8979, "sharing": 8980, "Ġcoup": 8981, "Ġsummary": 8982, "ĠPrime": 8983, "Ġprivacy": 8984, "Ġagenda": 8985, "Ġparticipation": 8986, "Ġdemocr": 8987, "Ġobserved": 8988, "ĠPolicy": 8989, "ĠStudent": 8990, "ĠSenior": 8991, "ĠTransport": 8992, "Ġarrival": 8993, "Ġaffili": 8994, "Ġacquired": 8995, "Ġbegun": 8996, "limited": 8997, "Ġliberal": 8998, "Ġwireless": 8999, "February": 9000, "Ġvillage": 9001, "Ġcopies": 9002, "Ġempty": 9003, "ĠHughes": 9004, "iterranean": 9005, "%.": 9006, "89": 9007, "?)": 9008, "IAL": 9009, "LY": 9010, "RO": 9011, "Under": 9012, "Welcome": 9013, "called": 9014, "dis": 9015, "fall": 9016, "gage": 9017, "jud": 9018, "mitting": 9019, "rus": 9020, "sen": 9021, "was": 9022, "rell": 9023, "onic": 9024, "Ġwestern": 9025, "Ġbills": 9026, "edu": 9027, "Ġtoss": 9028, "Ġinner": 9029, "Ġhip": 9030, "Ġeleg": 9031, "ĠSix": 9032, "ĠTig": 9033, "ĠTem": 9034, "acular": 9035, "etts": 9036, "charge": 9037, "ĠPed": 9038, "Ġwholes": 9039, "ĠHoly": 9040, "Ġ250": 9041, "ĠLine": 9042, "ĠLiving": 9043, "ĠLED": 9044, "Ġriding": 9045, "ĠEU": 9046, "Ġvintage": 9047, "aining": 9048, "oper": 9049, "Ġdozen": 9050, "Ġoutlet": 9051, "izza": 9052, "Ġquery": 9053, "ĠVill": 9054, "Ġ39": 9055, "Ġrecruit": 9056, "Ġsubmission": 9057, "exp": 9058, "Ġending": 9059, "Ġdiscovery": 9060, "Ġintervention": 9061, "Ġtrials": 9062, "ĠBeck": 9063, "ussion": 9064, "ennis": 9065, "Ġnights": 9066, "Ġsolar": 9067, "ĠResources": 9068, "Ġsituations": 9069, "Ġtreatments": 9070, "Ġzero": 9071, "Ġobserver": 9072, "clusive": 9073, "ĠKevin": 9074, "Ġrequested": 9075, "Ġinitially": 9076, "Ġscreening": 9077, "ĠRegional": 9078, "Ġwidely": 9079, "Ġprinting": 9080, "Ġcaptured": 9081, "Ġvoters": 9082, "ĠBritain": 9083, "Ġimmune": 9084, "ĠRobinson": 9085, "ĠMotor": 9086, "graduate": 9087, "Ġaffordable": 9088, "celona": 9089, "Ġarrangements": 9090, "ĠEnvironmental": 9091, "Ġtherapy": 9092, "Ġretirement": 9093, "ĠDigital": 9094, "Ġerrors": 9095, "ĠCameron": 9096, "Ġslavery": 9097, "Ġoverwhel": 9098, "ĠESPN": 9099, "62": 9100, "Out": 9101, "PD": 9102, "sit": 9103, "town": 9104, "Ġcodes": 9105, "Ġboss": 9106, "Ġfo": 9107, "Ġlady": 9108, "Ġreim": 9109, "Ġreaction": 9110, "Ġgard": 9111, "Ġgross": 9112, "Ġgathered": 9113, "ĠSure": 9114, "ĠTax": 9115, "iders": 9116, "Ġyeah": 9117, "ĠCur": 9118, "ĠCancer": 9119, "ĠBM": 9120, "ĠBureau": 9121, "ĠHo": 9122, "ĠHan": 9123, "ĠFresh": 9124, "ĠRun": 9125, "gel": 9126, "ulating": 9127, "Ġru": 9128, "Ġlect": 9129, "agraph": 9130, "Ġadmission": 9131, "ĠVeter": 9132, "Ġscreens": 9133, "oven": 9134, "cludes": 9135, "Ġ59": 9136, "Ġsmoke": 9137, "Ġtrave": 9138, "ĠSere": 9139, "Ġinstant": 9140, "Ġhighway": 9141, "Ġchef": 9142, "Ġviewed": 9143, "Ġanniversary": 9144, "Ġpayments": 9145, "ĠIndepend": 9146, "Ġoperator": 9147, "Ġsuppose": 9148, "Ġsupporters": 9149, "Ġlimits": 9150, "ĠMediterranean": 9151, "ĠTHAT": 9152, "ospit": 9153, "Ġlowest": 9154, "ibraries": 9155, "who": 9156, "Ġrepresentatives": 9157, "Ġpicking": 9158, "Ġcharacteristics": 9159, "ĠPerhaps": 9160, "olec": 9161, "Ġcookies": 9162, "Ġrespective": 9163, "Ġroads": 9164, "ĠRecipe": 9165, "Ġobjective": 9166, "Ġboxes": 9167, "Ġinterviews": 9168, "ĠSimple": 9169, "Ġcups": 9170, "Ġapplies": 9171, "itzer": 9172, "market": 9173, "ĠModel": 9174, "ĠDefense": 9175, "Ġrarely": 9176, "Ġexhibition": 9177, "Ġreplacement": 9178, "Ġevaluation": 9179, "Ġvariables": 9180, "ĠIrish": 9181, "ĠHunter": 9182, "ĠStanford": 9183, "ĠRoyal": 9184, "ĠJewish": 9185, "usalem": 9186, "Ġfundamental": 9187, "Ġceremon": 9188, "ĠGreece": 9189, "ĠOccup": 9190, "achusetts": 9191, "BO": 9192, "CA": 9193, "DR": 9194, "NL": 9195, "Pres": 9196, "TM": 9197, "Tuesday": 9198, "Vis": 9199, "aa": 9200, "marks": 9201, "wich": 9202, "worth": 9203, "Ġtone": 9204, "Ġtired": 9205, "heel": 9206, "Ġcotton": 9207, "orne": 9208, "orms": 9209, "Ġports": 9210, "Ġpipe": 9211, "Ġoffe": 9212, "Ġhanging": 9213, "Ġnorthern": 9214, "ĠIowa": 9215, "ĠTournament": 9216, "ĠTJC": 9217, "ĠCross": 9218, "ĠCode": 9219, "Ġstem": 9220, "ersion": 9221, "ĠDick": 9222, "ĠHP": 9223, "ĠFast": 9224, "ĠFREE": 9225, "Ġsear": 9226, "ĠRV": 9227, "ĠRoman": 9228, "rix": 9229, "ĠNever": 9230, "Ġrated": 9231, "ĠEgg": 9232, "Ġshit": 9233, "Ġchances": 9234, "Ġworship": 9235, "Ġtech": 9236, "Ġteeth": 9237, "ĠKat": 9238, "Ġunex": 9239, "ervice": 9240, "ressed": 9241, "Ġspeaker": 9242, "Ġ44": 9243, "iana": 9244, "Ġblow": 9245, "endar": 9246, "Ġsynd": 9247, "ĠAlaska": 9248, "ĠAnth": 9249, "ĠForum": 9250, "ĠAds": 9251, "ĠAdvert": 9252, "aza": 9253, "Ġedited": 9254, "Ġretired": 9255, "Ġfounder": 9256, "Ġtries": 9257, "Ġ120": 9258, "ĠBeaut": 9259, "ĠTrade": 9260, "Ġannoy": 9261, "ĠMaria": 9262, "ĠCarib": 9263, "ĠApplic": 9264, "ĠContact": 9265, "Ġstops": 9266, "Ġbreaks": 9267, "Ġparticipating": 9268, "Ġperiods": 9269, "Ġamounts": 9270, "Ġcommonly": 9271, "Ġchallenging": 9272, "space": 9273, "Ġmathemat": 9274, "ĠBrook": 9275, "Ġholes": 9276, "Ġcorrectly": 9277, "Ġguns": 9278, "ĠAnnual": 9279, "Ġacquis": 9280, "Ġretailers": 9281, "Ġpromotion": 9282, "Ġrepeat": 9283, "friendly": 9284, "ĠFranklin": 9285, "Ġtroops": 9286, "Ġgraphics": 9287, "ĠMassachusetts": 9288, "Ġcooperation": 9289, "October": 9290, "Ġunlikely": 9291, "ĠConditions": 9292, "ĠLegisl": 9293, "Ġbonus": 9294, "Ġcasual": 9295, "ĠKelly": 9296, "Ġliquid": 9297, "ĠNASA": 9298, "Ġjewel": 9299, "ĠIdeas": 9300, "Ġreputation": 9301, "ĠFinancial": 9302, "Both": 9303, "Comm": 9304, "Top": 9305, "Use": 9306, "chers": 9307, "hard": 9308, "iro": 9309, "nut": 9310, "uer": 9311, "Ġtong": 9312, "Ġtons": 9313, "inating": 9314, "Ġcos": 9315, "orf": 9316, "organ": 9317, "Ġbis": 9318, "Ġfiber": 9319, "Ġdirt": 9320, "Ġgrip": 9321, "acher": 9322, "utor": 9323, "etch": 9324, "Ġisol": 9325, "ĠAF": 9326, "ĠCOM": 9327, "olph": 9328, "ĠPen": 9329, "ĠPier": 9330, "ĠWITH": 9331, "ĠDur": 9332, "orer": 9333, "ths": 9334, "ista": 9335, "Ġrug": 9336, "ĠEvent": 9337, "uma": 9338, "ummy": 9339, "Ġshiny": 9340, "ĠJam": 9341, "Ġmeals": 9342, "ieve": 9343, "ogen": 9344, "ĠKids": 9345, "ĠStaff": 9346, "ĠVen": 9347, "orses": 9348, "Ġprovince": 9349, "Ġflower": 9350, "Ġconservative": 9351, "Ġremix": 9352, "Ġsynt": 9353, "Ġentries": 9354, "Ġacceler": 9355, "Ġbranches": 9356, "Ġminim": 9357, "Ġexperiment": 9358, "Ġservers": 9359, "Ġexpense": 9360, "Ġposter": 9361, "Ġfewer": 9362, "Ġprofits": 9363, "ĠOrder": 9364, "ĠFla": 9365, "ĠCole": 9366, "ĠMcG": 9367, "ĠTHIS": 9368, "Ġpackages": 9369, "ĠBarcelona": 9370, "Ġarguments": 9371, "Ġsquad": 9372, "Ġcontributions": 9373, "UST": 9374, "Ġsurvived": 9375, "Ġbrands": 9376, "ĠClassic": 9377, "Ġscheme": 9378, "ĠMaine": 9379, "Next": 9380, "Ġdemonstrate": 9381, "ĠSingapore": 9382, "____": 9383, "oosing": 9384, "Ġannouncement": 9385, "Ġuniversities": 9386, "ĠLearn": 9387, "Ġadventure": 9388, "People": 9389, "oenix": 9390, "Ġphenomen": 9391, "72": 9392, "74": 9393, "CD": 9394, "Fl": 9395, "OB": 9396, "cs": 9397, "log": 9398, "will": 9399, "woman": 9400, "zan": 9401, "Ġtube": 9402, "Ġaircraft": 9403, "Ġwise": 9404, "Ġcabin": 9405, "itched": 9406, "enger": 9407, "Ġbags": 9408, "Ġhal": 9409, "Ġhide": 9410, "Ġhoney": 9411, "Ġlad": 9412, "Ġgained": 9413, "ĠSE": 9414, "ĠTell": 9415, "ĠCase": 9416, "ĠCopyright": 9417, "adi": 9418, "ĠPant": 9419, "ĠWould": 9420, "Ġprox": 9421, "ĠDub": 9422, "herry": 9423, "ĠFive": 9424, "ĠRot": 9425, "ĠNatural": 9426, "Ġraces": 9427, "Ġranks": 9428, "ĠGene": 9429, "Ġvocal": 9430, "Ġshr": 9431, "agan": 9432, "Ġkit": 9433, "Ġcompatible": 9434, "ĠThompson": 9435, "Ġunknown": 9436, "Ġ360": 9437, "avy": 9438, "ruption": 9439, "Ġconsent": 9440, "Ġinvite": 9441, "Ġrelating": 9442, "ĠWhit": 9443, "Ġ800": 9444, "Ġinsight": 9445, "Ġexposed": 9446, "ĠBlood": 9447, "Ġtrips": 9448, "Ġsecondary": 9449, "Ġformula": 9450, "ĠPlant": 9451, "Ġorganisation": 9452, "Ġviewing": 9453, "scale": 9454, "boff": 9455, "State": 9456, "ITE": 9457, "ĠSupp": 9458, "Ġballs": 9459, "ĠContin": 9460, "Ġzones": 9461, "Ġrepresenting": 9462, "Ġconnections": 9463, "Ġmagn": 9464, "spot": 9465, "ĠPrem": 9466, "Ġdocumentation": 9467, "ĠParis": 9468, "Ġencouraged": 9469, "Ġimplemented": 9470, "Ġlegislative": 9471, "Ġfrequency": 9472, "ĠPlanning": 9473, "ĠSystems": 9474, "Ġdenied": 9475, "ĠAlexander": 9476, "Ġepisodes": 9477, "Friday": 9478, "break": 9479, "Ġmanufacturers": 9480, "ĠStandard": 9481, "Ġboots": 9482, "Ġarchitecture": 9483, "Ġconvenient": 9484, "oppers": 9485, "Ġdramatic": 9486, "ĠKorea": 9487, "Ġknee": 9488, "Ġphotographs": 9489, "Ġpreparation": 9490, "Ġadapted": 9491, "Ġaccompanied": 9492, "ĠSereboff": 9493, ")||": 9494, ",âĢĻ": 9495, "Media": 9496, "NS": 9497, "Take": 9498, "VP": 9499, "Words": 9500, "aus": 9501, "dri": 9502, "green": 9503, "hal": 9504, "lock": 9505, "herent": 9506, "erg": 9507, "Ġwage": 9508, "Ġborrow": 9509, "Ġfool": 9510, "Ġfert": 9511, "Ġtoys": 9512, "Ġtomat": 9513, "Ġinch": 9514, "Ġdur": 9515, "Ġdairy": 9516, "leans": 9517, "Ġnaturally": 9518, "style": 9519, "Ġgall": 9520, "ĠAth": 9521, "ĠCF": 9522, "amers": 9523, "sect": 9524, "igure": 9525, "ĠMother": 9526, "ĠMoh": 9527, "olvable": 9528, "Ġstone": 9529, "ĠBull": 9530, "ĠWars": 9531, "ĠWik": 9532, "ĠDam": 9533, "ĠRick": 9534, "ushes": 9535, "Ġrice": 9536, "ĠGov": 9537, "Ġvibr": 9538, "umm": 9539, "Ġshops": 9540, "ĠJoh": 9541, "Ġchart": 9542, "apy": 9543, "ĠKate": 9544, "ĠKnow": 9545, "sole": 9546, "asses": 9547, "ordinary": 9548, "Ġaccord": 9549, "Ġshell": 9550, "iano": 9551, "Ġpride": 9552, "week": 9553, "Ġflav": 9554, "comfort": 9555, "Ġregulation": 9556, "Ġstudied": 9557, "Ġincent": 9558, "ĠSeason": 9559, "Ġ95": 9560, "ĠDeb": 9561, "ĠArk": 9562, "Ġcrimes": 9563, "lessly": 9564, "ĠUSC": 9565, "ĠConf": 9566, "Ġsinger": 9567, "Ġofficially": 9568, "Ġdrama": 9569, "unicipal": 9570, "what": 9571, "Ġdemands": 9572, "ĠWarren": 9573, "Ġdefeat": 9574, "Ġabsence": 9575, "Ġrespectively": 9576, "Ġurine": 9577, "rawl": 9578, "Ġlayers": 9579, "Ġconvin": 9580, "Ġturb": 9581, "Ġlifetime": 9582, "Ġcrucial": 9583, "ĠEngineering": 9584, "Ġviruses": 9585, "Ġcolleagues": 9586, "Ġdiagnosis": 9587, "ĠJerusalem": 9588, "Ġinstruments": 9589, "ĠAccount": 9590, "Contact": 9591, "Ġdestroyed": 9592, "ĠFootball": 9593, "Ġenthusi": 9594, "Ġtemplate": 9595, "BR": 9596, "Bar": 9597, "Call": 9598, "Make": 9599, "NY": 9600, "days": 9601, "lings": 9602, "making": 9603, "ridge": 9604, "Ġtbe": 9605, "Ġsatellite": 9606, "Ġow": 9607, "essel": 9608, "Ġbureau": 9609, "Ġmic": 9610, "stal": 9611, "ĠSC": 9612, "ĠTalk": 9613, "ctrine": 9614, "igor": 9615, "igious": 9616, "ilton": 9617, "Ġstunning": 9618, "ĠPad": 9619, "ĠDoc": 9620, "ĠHS": 9621, "ĠHold": 9622, "Ġseventh": 9623, "Ġcompe": 9624, "estyle": 9625, "Ġdeer": 9626, "ablo": 9627, "ĠLLC": 9628, "ĠNice": 9629, "ĠNature": 9630, "ĠEastern": 9631, "emed": 9632, "Ġsup": 9633, "Ġalt": 9634, "plan": 9635, "Ġouts": 9636, "Ġteasp": 9637, "ĠKos": 9638, "aug": 9639, "Ġdisorder": 9640, "Ġknife": 9641, "ĠWee": 9642, "Ġroot": 9643, "Ġ52": 9644, "Ġdonation": 9645, "Ġattitude": 9646, "Ġ92": 9647, "ĠAlabama": 9648, "Ġhandling": 9649, "Ġcarries": 9650, "Ġfilter": 9651, "Ġprogramming": 9652, "Ġreporters": 9653, "Ġpassage": 9654, "Ġdesigner": 9655, "ĠOrleans": 9656, "ĠResults": 9657, "ĠScreen": 9658, "Ġversus": 9659, "incoln": 9660, "2004": 9661, "Ġforest": 9662, "ĠComputer": 9663, "faction": 9664, "ĠPolit": 9665, "Ġgenre": 9666, "Ġenterprise": 9667, "Ġprimarily": 9668, "Ġreveal": 9669, "Ġcameras": 9670, "Ġsubscrib": 9671, "ĠVisit": 9672, "Ġsupplied": 9673, "ĠVegas": 9674, "Ġsequence": 9675, "ĠMichel": 9676, "Ġenemy": 9677, "ĠJacob": 9678, "Ġsubsequent": 9679, "Ġlobby": 9680, "David": 9681, "Ġunusual": 9682, "ĠCraig": 9683, "ĠCaribbean": 9684, "Ġconvinced": 9685, "Cal": 9686, "Date": 9687, "born": 9688, "dy": 9689, "hill": 9690, "hops": 9691, "lers": 9692, "lisher": 9693, "oons": 9694, "pan": 9695, "pher": 9696, "rate": 9697, "tail": 9698, "uine": 9699, "Ġtu": 9700, "inated": 9701, "Ġsed": 9702, "Ġsits": 9703, "Ġcow": 9704, "itches": 9705, "isan": 9706, "enza": 9707, "Ġbite": 9708, "Ġbeds": 9709, "Ġfilling": 9710, "Ġpowers": 9711, "Ġdating": 9712, "Ġlaptop": 9713, "Ġrend": 9714, "Ġreact": 9715, "stead": 9716, "ĠSweet": 9717, "ĠTampa": 9718, "acco": 9719, "eterm": 9720, "ĠCow": 9721, "ĠCorn": 9722, "ĠMoney": 9723, "Ġstir": 9724, "Ġstable": 9725, "ĠPent": 9726, "ĠProm": 9727, "ĠPitts": 9728, "ĠBat": 9729, "ĠBattle": 9730, "Ġangle": 9731, "Ġanonym": 9732, "ĠDog": 9733, "ĠHop": 9734, "ĠFarm": 9735, "ĠRen": 9736, "estions": 9737, "Ġalarm": 9738, "Ġalleg": 9739, "odge": 9740, "Ġkm": 9741, "urer": 9742, "ĠKay": 9743, "ĠKong": 9744, "ĠThings": 9745, "eps": 9746, "ultane": 9747, "Ġunc": 9748, "Ġspaces": 9749, "ported": 9750, "ishop": 9751, "Ġdesper": 9752, "Ġattach": 9753, "Ġmining": 9754, "Ġraw": 9755, "Ġframework": 9756, "Ġpersonality": 9757, "Ġsimultane": 9758, "Ġgameplay": 9759, "ĠiOS": 9760, "ĠShel": 9761, "Ġlawyer": 9762, "Ġequally": 9763, "Ġsoccer": 9764, "Ġlegit": 9765, "ĠRepresent": 9766, "Ġemployer": 9767, "pending": 9768, "Ġpromised": 9769, "Ġsinging": 9770, "irlines": 9771, "ĠÂ§": 9772, "Ġenjoying": 9773, "Ġaudiences": 9774, "Ġprivile": 9775, "Ġ1987": 9776, "Ġphysics": 9777, "Ġreducing": 9778, "Ġviolation": 9779, "Ġcovering": 9780, "ĠReporting": 9781, "Ġregistry": 9782, "Ġdrove": 9783, "ĠUsing": 9784, "Prof": 9785, "ĠRoberts": 9786, "Ġcycl": 9787, "ĠEveryone": 9788, "Ġdisappear": 9789, "Ġimpressed": 9790, "iosity": 9791, "Ġattractive": 9792, "ĠRelations": 9793, "Ġdetected": 9794, "ĠOSCE": 9795, "ĠProfessional": 9796, "Ġvolunteer": 9797, "Ġdepartments": 9798, "ĠSirius": 9799, "ĠWalker": 9800, "ĠSusan": 9801, "Ġentrance": 9802, "antiago": 9803, "ĠAffairs": 9804, "ĠAfghanistan": 9805, "Ġjuris": 9806, "Originally": 9807, "Ġparallel": 9808, "',": 9809, "CO": 9810, "EFA": 9811, "Her": 9812, "High": 9813, "Med": 9814, "November": 9815, "WH": 9816, "ao": 9817, "bat": 9818, "cop": 9819, "dam": 9820, "jockey": 9821, "nce": 9822, "nie": 9823, "rans": 9824, "such": 9825, "ystem": 9826, "repre": 9827, "Ġtherape": 9828, "erted": 9829, "Ġcra": 9830, "Ġthrown": 9831, "Ġloose": 9832, "Ġreverse": 9833, "ĠSuch": 9834, "ĠTer": 9835, "ĠTree": 9836, "section": 9837, "urg": 9838, "Ġhed": 9839, "ĠPDF": 9840, "ĠBird": 9841, "ĠDream": 9842, "Ġcomic": 9843, "ĠTheatre": 9844, "ĠLatin": 9845, "ĠEst": 9846, "quality": 9847, "ortion": 9848, "opia": 9849, "agger": 9850, "plus": 9851, "ichael": 9852, "Ġoutfit": 9853, "Ġmanual": 9854, "Ġdispos": 9855, "icked": 9856, "Ġsomehow": 9857, "Ġoverp": 9858, "ĠChange": 9859, "ounding": 9860, "ovation": 9861, "Ġblame": 9862, "Ġdeserve": 9863, "Ġeverywhere": 9864, "rowing": 9865, "Ġasset": 9866, "Ġslides": 9867, "ĠShop": 9868, "Ġedit": 9869, "ĠArm": 9870, "Ġstrict": 9871, "Ġreceiver": 9872, "Ġexploring": 9873, "Ġlighting": 9874, "Ġlegacy": 9875, "Ġclassroom": 9876, "ĠOrig": 9877, "Ġaccessories": 9878, "annels": 9879, "ĠIsl": 9880, "Stud": 9881, "ĠAmong": 9882, "Ġhotels": 9883, "Ġelectrical": 9884, "Ġtrem": 9885, "Ġlands": 9886, "Ġceiling": 9887, "ĠBarack": 9888, "ĠAssociated": 9889, "Ġargued": 9890, "Ġattending": 9891, "ĠArticle": 9892, "Ġemerging": 9893, "Ġneighbors": 9894, "ĠJudges": 9895, "IVE": 9896, "ĠCapital": 9897, "Ġinspiration": 9898, "Ġweapon": 9899, "Ġtackle": 9900, "Ġreferences": 9901, "ĠRussia": 9902, "Ġincorpor": 9903, "ĠLimited": 9904, "ĠIVs": 9905, "uminum": 9906, "Ġdecrease": 9907, "ĠDenver": 9908, "Ġathletic": 9909, "Ġwalks": 9910, "ĠCircuit": 9911, "ĠNichols": 9912, "Ġnegoti": 9913, "Ġdiscrimination": 9914, "Ġcompensation": 9915, "Ġunemployment": 9916, "Ġdataset": 9917, "Ġmerchand": 9918, "Ġuniform": 9919, "reprene": 9920, "501": 9921, "67": 9922, "BN": 9923, "Does": 9924, "GA": 9925, "South": 9926, "TON": 9927, "Yeah": 9928, "aired": 9929, "hi": 9930, "nik": 9931, "rat": 9932, "uz": 9933, "when": 9934, "zing": 9935, "Ġtill": 9936, "Ġtort": 9937, "Ġcrown": 9938, "lled": 9939, "enting": 9940, "Ġgang": 9941, "Ġgallery": 9942, "ĠSelf": 9943, "ĠTher": 9944, "ĠTrain": 9945, "ĠTarget": 9946, "ĠAst": 9947, "ĠCir": 9948, "igate": 9949, "ĠMs": 9950, "ĠMir": 9951, "ĠMall": 9952, "ĠPars": 9953, "Ġconj": 9954, "Ġseeds": 9955, "ĠRAM": 9956, "Ġcomed": 9957, "ĠLincoln": 9958, "ĠName": 9959, "ĠGro": 9960, "ardo": 9961, "Ġcancell": 9962, "rous": 9963, "aga": 9964, "Ġmeets": 9965, "ĠThird": 9966, "Ġovernight": 9967, "itioner": 9968, "Ġrose": 9969, "Ġroster": 9970, "Ġ54": 9971, "Ġflaw": 9972, "phones": 9973, "Ġguidance": 9974, "angel": 9975, "ĠWhich": 9976, "Ġassigned": 9977, "Ġprescrib": 9978, "Ġsurve": 9979, "Ġmodified": 9980, "Ġsigning": 9981, "Ġlisting": 9982, "Ġcurren": 9983, "ĠBeing": 9984, "Ġdistract": 9985, "Ġexplicit": 9986, "Ġoldest": 9987, "enny": 9988, "Ġdeliber": 9989, "ĠPhoto": 9990, "ĠScot": 9991, "Ġ1991": 9992, "Star": 9993, "idditch": 9994, "!!!!": 9995, "ISA": 9996, "ernel": 9997, "ĠAssistant": 9998, "Ġminds": 9999, "ĠGrant": 10000, "Ġcultiv": 10001, "Ġstayed": 10002, "Ġsteel": 10003, "Ġdifficulty": 10004, "Ġfunctionality": 10005, "Ġdeclared": 10006, "Ġconsistently": 10007, "Ġpollution": 10008, "Ġunsolvable": 10009, "controll": 10010, "Ġawareness": 10011, "ĠDefence": 10012, "Ġappointed": 10013, "Ġscenario": 10014, "Ġaccomplished": 10015, "Ġstrategic": 10016, "Ġrestrictions": 10017, "Ġelectricity": 10018, "ĠRevolution": 10019, "ĠDownload": 10020, "Ġinterpretation": 10021, "Ġvegetables": 10022, "Ġgathering": 10023, "Ġopponents": 10024, "Ġpuppy": 10025, "Austral": 10026, "jockeyclub": 10027, "Ġtherapeutic": 10028, "?!": 10029, "Av": 10030, "Aut": 10031, "Co": 10032, "CON": 10033, "],": 10034, "aire": 10035, "bial": 10036, "good": 10037, "jan": 10038, "mers": 10039, "overs": 10040, "pg": 10041, "pot": 10042, "uh": 10043, "Ġ!": 10044, "Ġ;": 10045, "ĠâĢĻ": 10046, "requ": 10047, "reck": 10048, "Ġwider": 10049, "Ġbub": 10050, "Ġpill": 10051, "also": 10052, "Ġink": 10053, "omore": 10054, "Ġlin": 10055, "Ġnic": 10056, "ĠSaints": 10057, "ĠTE": 10058, "ĠTan": 10059, "etry": 10060, "ĠAbs": 10061, "ĠCrown": 10062, "ĠMission": 10063, "ĠPract": 10064, "ĠBL": 10065, "ĠBrew": 10066, "ĠWy": 10067, "ĠWat": 10068, "ĠDer": 10069, "ĠHart": 10070, "ĠRa": 10071, "ĠGa": 10072, "ĠGathers": 10073, "ĠEs": 10074, "andra": 10075, "ĠJen": 10076, "Ġlease": 10077, "Ġleather": 10078, "Ġplacing": 10079, "astro": 10080, "apse": 10081, "Ġupset": 10082, "ĠVice": 10083, "Ġnoon": 10084, "ĠHeart": 10085, "Ġshelf": 10086, "Ġprinter": 10087, "Ġproved": 10088, "forest": 10089, "prises": 10090, "Ġ78": 10091, "ĠClark": 10092, "Ġcounts": 10093, "ĠShare": 10094, "Ġdeveloper": 10095, "ĠAsk": 10096, "ĠFront": 10097, "Ġheadquarters": 10098, "Ġsurely": 10099, "Ġemployers": 10100, "ĠIndeed": 10101, "ARR": 10102, "Ġphotography": 10103, "Ġengaging": 10104, "Ġbeneath": 10105, "ĠAppl": 10106, "Ġcredits": 10107, "ĠContest": 10108, "Ġfavorites": 10109, "Ġmanagers": 10110, "Ġrepresentative": 10111, "Ġlogin": 10112, "Ġstriking": 10113, "Ġattempted": 10114, "Ġgenuine": 10115, "Ġslee": 10116, "ĠRegion": 10117, "Ġexceptional": 10118, "ĠCharl": 10119, "ĠDecor": 10120, "Ġhumor": 10121, "Ġbankrupt": 10122, "Ġenhanced": 10123, "Ġbrahman": 10124, "ĠProducts": 10125, "Ġunfair": 10126, "Ġinteractive": 10127, "ĠOfficer": 10128, "Ġsolely": 10129, "ĠALL": 10130, "Ġallegedly": 10131, "Ġopponent": 10132, "Ġintelligence": 10133, "ĠAuthority": 10134, "Ġsamples": 10135, "IGHT": 10136, "ĠQueen": 10137, "ĠChampionship": 10138, "ĠRomney": 10139, "ealand": 10140, "Police": 10141, "ĠSafety": 10142, "Ġaggressive": 10143, "\").": 10144, "83": 10145, "BL": 10146, "Bay": 10147, "Best": 10148, "Hi": 10149, "Lear": 10150, "Look": 10151, "Love": 10152, "NG": 10153, "National": 10154, "Red": 10155, "TP": 10156, "Wor": 10157, "Work": 10158, "``": 10159, "cap": 10160, "dep": 10161, "iac": 10162, "ko": 10163, "phe": 10164, "vas": 10165, "vens": 10166, "xic": 10167, "zens": 10168, "Äģ": 10169, "Ġtags": 10170, "oned": 10171, "Ġtheft": 10172, "Ġware": 10173, "Ġwrest": 10174, "atile": 10175, "iti": 10176, "orical": 10177, "Ġfired": 10178, "Ġdont": 10179, "Ġhired": 10180, "icate": 10181, "omed": 10182, "Ġrely": 10183, "stract": 10184, "vet": 10185, "ĠIce": 10186, "ĠTam": 10187, "ĠTap": 10188, "ĠAgr": 10189, "ĠCroy": 10190, "amination": 10191, "urities": 10192, "ĠMach": 10193, "ĠBan": 10194, "ĠBos": 10195, "Ġweigh": 10196, "ĠWolf": 10197, "ĠDR": 10198, "ĠFI": 10199, "ateful": 10200, "ĠRules": 10201, "riers": 10202, "Ġdeeper": 10203, "ighters": 10204, "abb": 10205, "ĠLady": 10206, "ĠLarry": 10207, "ĠNon": 10208, "Ġrhy": 10209, "quer": 10210, "ustration": 10211, "osa": 10212, "ntil": 10213, "ocial": 10214, "Ġalert": 10215, "ĠJess": 10216, "Ġleaf": 10217, "Ġchannels": 10218, "ivities": 10219, "oda": 10220, "ĠURL": 10221, "ogan": 10222, "Ġcompan": 10223, "ĠStory": 10224, "Ġresidence": 10225, "Ġdishes": 10226, "ĠVideos": 10227, "ĠChannel": 10228, "Ġscand": 10229, "ĠHell": 10230, "Ġ46": 10231, "Ġflies": 10232, "Ġsubstitute": 10233, "Ġsetup": 10234, "bsite": 10235, "Ġhanded": 10236, "mann": 10237, "Ġcurious": 10238, "Ġcompletion": 10239, "Ġbooth": 10240, "Ġvariable": 10241, "ĠQuality": 10242, "Ġmainstream": 10243, "ĠExchange": 10244, "ĠZealand": 10245, "letin": 10246, "Ġimportantly": 10247, "scar": 10248, "ĠMayor": 10249, "ĠFlash": 10250, "Ġmovements": 10251, "2014": 10252, "Ġshortly": 10253, "Ġchecking": 10254, "ĠSym": 10255, "Ġmoral": 10256, "ĠSmart": 10257, "ĠNeed": 10258, "Ġdefeated": 10259, "Ġworthy": 10260, "ĠStudy": 10261, "legiate": 10262, "riptions": 10263, "orgeous": 10264, "ĠSwed": 10265, "Ġalbums": 10266, "Ġdecline": 10267, "Ġdeclined": 10268, "Ġcontaining": 10269, "ĠAuto": 10270, "ĠChristianity": 10271, "Ġdreams": 10272, "ĠAnton": 10273, "Ġexpanding": 10274, "ĠRemember": 10275, "Ġexhibit": 10276, "Ġprospects": 10277, "Ġsustainable": 10278, "accur": 10279, "ĠTribune": 10280, "Ġvaccine": 10281, "Ġtrademark": 10282, "Ġlicensed": 10283, "ĠKentucky": 10284, "Ġfatalities": 10285, "Ġninth": 10286, "ĠYankees": 10287, "Ġdisagree": 10288, "Ġtissue": 10289, "400": 10290, "Hel": 10291, "Join": 10292, "Main": 10293, "PE": 10294, "Tube": 10295, "cour": 10296, "count": 10297, "fr": 10298, "hot": 10299, "mind": 10300, "maker": 10301, "uj": 10302, "wall": 10303, "yal": 10304, "rection": 10305, "Ġfed": 10306, "Ġfitting": 10307, "Ġfitness": 10308, "Ġpushing": 10309, "Ġpocket": 10310, "alysis": 10311, "Ġinning": 10312, "Ġinject": 10313, "Ġdil": 10314, "Ġdrew": 10315, "Ġhug": 10316, "Ġlib": 10317, "Ġgre": 10318, "ĠSometimes": 10319, "eters": 10320, "ĠAge": 10321, "ĠMars": 10322, "Ġstability": 10323, "ĠWi": 10324, "ifting": 10325, "Ġprosec": 10326, "ĠDS": 10327, "ĠHAV": 10328, "Ġsees": 10329, "ĠRoc": 10330, "ĠRound": 10331, "ĠRush": 10332, "ĠLes": 10333, "ĠNS": 10334, "ĠNEW": 10335, "pel": 10336, "ĠGive": 10337, "umbers": 10338, "ela": 10339, "elson": 10340, "Ġalter": 10341, "ĠJordan": 10342, "aucus": 10343, "ultz": 10344, "Ġpeak": 10345, "Ġaccum": 10346, "Ġ51": 10347, "Ġflo": 10348, "Ġactors": 10349, "Ġundert": 10350, "awa": 10351, "ockets": 10352, "ĠCommercial": 10353, "Ġentity": 10354, "Ġlasting": 10355, "Ġacute": 10356, "Intern": 10357, "Ġrequiring": 10358, "Ġchecks": 10359, "Ġgrill": 10360, "Ġadvised": 10361, "Ġ180": 10362, "Ġdirectory": 10363, "Ġresulted": 10364, "ĠUSE": 10365, "ĠPhoenix": 10366, "tended": 10367, "ARD": 10368, "ORE": 10369, "Ġ1992": 10370, "Ġ1994": 10371, "Ġprotein": 10372, "2001": 10373, "2007": 10374, "Ġenjoys": 10375, "ĠPrint": 10376, "swer": 10377, "Ġcompliment": 10378, "umbled": 10379, "Ġmeasured": 10380, "Ġviolent": 10381, "Ġfastest": 10382, "Ġstrikes": 10383, "Ġattempting": 10384, "Ġsoldiers": 10385, "Ġsilent": 10386, "Ġrolled": 10387, "speed": 10388, "specific": 10389, "ĠIsraeli": 10390, "Ġpremie": 10391, "ĠIraqi": 10392, "Ġpromoting": 10393, "Ġdistricts": 10394, "world": 10395, "Ġveterans": 10396, "Meanwhile": 10397, "Ġbatteries": 10398, "ĠCuba": 10399, "Ġconfirmation": 10400, "Ġchemical": 10401, "Ġvolunteers": 10402, "Ġratio": 10403, "Ġfucking": 10404, "Ġbacter": 10405, "Ġsavings": 10406, "Ġconcrete": 10407, "Ġplayoffs": 10408, "ĠEconomic": 10409, "Ġroughly": 10410, "hattan": 10411, "Ġterritory": 10412, "Ġopioids": 10413, "Ġcertificate": 10414, "September": 10415, "ĠPowell": 10416, "%,": 10417, "Dec": 10418, "HP": 10419, "KING": 10420, "Sign": 10421, "Source": 10422, "cor": 10423, "fare": 10424, "fits": 10425, "have": 10426, "iotic": 10427, "low": 10428, "ped": 10429, "Ġtears": 10430, "Ġtasks": 10431, "onia": 10432, "Ġcinema": 10433, "Ġbother": 10434, "Ġfits": 10435, "Ġfails": 10436, "aro": 10437, "Ġmit": 10438, "Ġmakers": 10439, "Ġinfection": 10440, "Ġhunt": 10441, "asm": 10442, "Ġbeating": 10443, "aying": 10444, "ĠACC": 10445, "ilst": 10446, "ĠMade": 10447, "oline": 10448, "Ġstab": 10449, "Ġstroke": 10450, "ĠPages": 10451, "ĠBruce": 10452, "lder": 10453, "ĠDru": 10454, "ĠFDA": 10455, "Ġsegment": 10456, "ĠRO": 10457, "Ġdeleg": 10458, "ĠLink": 10459, "ĠLiter": 10460, "ĠNut": 10461, "ummer": 10462, "Ġshock": 10463, "Ġsuicide": 10464, "ocent": 10465, "oded": 10466, "Ġcompeting": 10467, "Ġenorm": 10468, "closed": 10469, "Ġresid": 10470, "Ġapplying": 10471, "Ġunp": 10472, "Ġoverse": 10473, "anche": 10474, "Ġ58": 10475, "Ġembed": 10476, "Ġpharm": 10477, "Ġ600": 10478, "Ġassists": 10479, "Inter": 10480, "Ġinstruction": 10481, "Ġ72": 10482, "Ġminimal": 10483, "Ġhandful": 10484, "Ġfrustr": 10485, "ĠClar": 10486, "Ġdevelopments": 10487, "Ġplacebo": 10488, "thew": 10489, "Ġreprodu": 10490, "Ġformation": 10491, "oky": 10492, "Ġpurple": 10493, "Ġvarieties": 10494, "Ġseemingly": 10495, "ĠText": 10496, "ĠSpons": 10497, "Ġlessons": 10498, "books": 10499, "arents": 10500, "ĠCoach": 10501, "appropri": 10502, "Ġhumanity": 10503, "Ġtradition": 10504, "ĠBoe": 10505, "Ġinvolves": 10506, "ĠGriff": 10507, "ĠSchools": 10508, "asket": 10509, "Ġapolog": 10510, "ĠImm": 10511, "ĠSchultz": 10512, "Ġdarkness": 10513, "Maybe": 10514, "Ġbalanced": 10515, "Ġlacking": 10516, "Ġfinishing": 10517, "ĠMorris": 10518, "ĠGovernor": 10519, "ĠCampaign": 10520, "Ġestablishment": 10521, "Ġownership": 10522, "Ġmechanical": 10523, "Ġplatforms": 10524, "Ġpunishment": 10525, "ĠOpera": 10526, "Ġinitiative": 10527, "Ġpregnant": 10528, "Ġjacket": 10529, "Ġthoroughly": 10530, "ĠUrban": 10531, "Ġconstitutional": 10532, "ĠDisease": 10533, "ĠAgricult": 10534, "91": 10535, "==": 10536, ">>": 10537, "Att": 10538, "Big": 10539, "Cor": 10540, "Em": 10541, "Finally": 10542, "James": 10543, "Met": 10544, "Mem": 10545, "Okay": 10546, "bec": 10547, "cure": 10548, "even": 10549, "har": 10550, "jection": 10551, "mod": 10552, "wy": 10553, "inar": 10554, "inate": 10555, "atoes": 10556, "esy": 10557, "Ġbab": 10558, "Ġpp": 10559, "Ġpuzz": 10560, "alo": 10561, "arms": 10562, "Ġmouse": 10563, "Ġdess": 10564, "Ġdying": 10565, "Ġhorses": 10566, "Ġnaked": 10567, "Ġgri": 10568, "ĠTreat": 10569, "Ġyog": 10570, "ĠCreek": 10571, "children": 10572, "ĠPL": 10573, "ĠPsych": 10574, "ĠBP": 10575, "ĠBand": 10576, "ĠBang": 10577, "ĠWing": 10578, "ĠWayne": 10579, "Ġpros": 10580, "ĠHad": 10581, "Ġconvert": 10582, "ĠFat": 10583, "ĠRB": 10584, "about": 10585, "ĠLangu": 10586, "ĠGre": 10587, "ĠGOP": 10588, "Ġshirt": 10589, "ĠOwen": 10590, "ĠJane": 10591, "Ġaband": 10592, "Ġjoke": 10593, "asty": 10594, "agram": 10595, "arest": 10596, "ipedia": 10597, "Ġquote": 10598, "Ġarr": 10599, "Ġarmed": 10600, "Ġ47": 10601, "Ġpricing": 10602, "amps": 10603, "Three": 10604, "Ġinvention": 10605, "ĠAlf": 10606, "Ġhighlights": 10607, "Ġvisits": 10608, "Ġrealistic": 10609, "bey": 10610, "beat": 10611, "Ġtriple": 10612, "Ġproductivity": 10613, "they": 10614, "Ġpublicly": 10615, "Ġeastern": 10616, "okia": 10617, "Ġpatches": 10618, "Ġwrist": 10619, "ĠHoward": 10620, "screen": 10621, "scribe": 10622, "minute": 10623, "ĠChristians": 10624, "Ġmarg": 10625, "ĠSteph": 10626, "Ġchecked": 10627, "Ġelections": 10628, "Ġelectronics": 10629, "OUT": 10630, "ĠPrince": 10631, "ĠEmail": 10632, "Ġcombat": 10633, "Ġ1985": 10634, "ĠQuidditch": 10635, "Ġhonored": 10636, "Ġcommentary": 10637, "Ġdescribes": 10638, "Ġinvestigate": 10639, "Ġcontractor": 10640, "Ġheaven": 10641, "Ġcontribution": 10642, "Ġdeeply": 10643, "Ġdrops": 10644, "ĠMuslim": 10645, "Ġproposals": 10646, "umni": 10647, "Ġgarage": 10648, "innamon": 10649, "Ġsmartphone": 10650, "Ġentertaining": 10651, "Ġexpanded": 10652, "Ġfemin": 10653, "Ġsurrounded": 10654, "ĠYOUR": 10655, "ĠEvents": 10656, "ĠJefferson": 10657, "ĠâĤ¬": 10658, "Ġvirtually": 10659, "ĠOrganic": 10660, "Trans": 10661, "ĠSquare": 10662, "Ġratings": 10663, "Ġpedal": 10664, "ĠExplorer": 10665, "Ġregulatory": 10666, "Ġemphasis": 10667, "Ġpregnancy": 10668, "plantation": 10669, "Ġtransfusion": 10670, "Ġordinance": 10671, "rientation": 10672, "ĠMarshall": 10673, "Ġrevenues": 10674, "ĠCredit": 10675, "Ġdisplays": 10676, "Ġtongue": 10677, "ĠParsons": 10678, ".:": 10679, "700": 10680, "Act": 10681, "Eng": 10682, "Fe": 10683, "Net": 10684, "Off": 10685, "Paul": 10686, "].": 10687, "bian": 10688, "bled": 10689, "gments": 10690, "py": 10691, "piece": 10692, "some": 10693, "ski": 10694, "via": 10695, "xx": 10696, "xual": 10697, "Ġax": 10698, "inction": 10699, "Ġsour": 10700, "itative": 10701, "orious": 10702, "Ġbail": 10703, "Ġtoler": 10704, "Ġmath": 10705, "Ġdies": 10706, "Ġdump": 10707, "Ġlying": 10708, "Ġlocked": 10709, "sted": 10710, "Ġgains": 10711, "Ġgorgeous": 10712, "ĠAction": 10713, "ĠArena": 10714, "ĠMR": 10715, "ĠMom": 10716, "olar": 10717, "ching": 10718, "ĠBath": 10719, "ĠWalt": 10720, "âĢĻ.": 10721, "ĠDiet": 10722, "ĠDraft": 10723, "ĠDiamond": 10724, "ĠHoll": 10725, "ĠRA": 10726, "uns": 10727, "union": 10728, "ĠLas": 10729, "Ġrational": 10730, "ĠGall": 10731, "ĠEve": 10732, "ĠOs": 10733, "ĠOnt": 10734, "elve": 10735, "Ġchips": 10736, "tech": 10737, "rying": 10738, "ipals": 10739, "itement": 10740, "ouses": 10741, "Ġresume": 10742, "Ġreserve": 10743, "Ġmanif": 10744, "Ġaggreg": 10745, "ĠVar": 10746, "Ġunve": 10747, "Ġuncle": 10748, "Ġovertime": 10749, "ĠChild": 10750, "Ġsculpt": 10751, "Ġworker": 10752, "issions": 10753, "grim": 10754, "endous": 10755, "gets": 10756, "ĠSeek": 10757, "ĠYouTube": 10758, "Ġlocally": 10759, "ounced": 10760, "Ġslide": 10761, "ĠAdvent": 10762, "Ġserial": 10763, "theless": 10764, "Ġdifferently": 10765, "ikov": 10766, "ĠColle": 10767, "ĠCollect": 10768, "Ġrefund": 10769, "Ġeffectiveness": 10770, "ĠSpa": 10771, "ĠZone": 10772, "ĠSche": 10773, "Ġfunded": 10774, "Ġalongside": 10775, "Ġengines": 10776, "ĠAppro": 10777, "arrass": 10778, "ĠWithout": 10779, "ĠSyria": 10780, "OUR": 10781, "Ġhosts": 10782, "Ġtemple": 10783, "Ġcomplicated": 10784, "Ġcomplaints": 10785, "ĠCompet": 10786, "ICK": 10787, "Ġbuyers": 10788, "aurant": 10789, "levant": 10790, "Ġobservation": 10791, "Ġstaying": 10792, "Ġbottles": 10793, "ĠPoland": 10794, "Ġtexture": 10795, "Ġcontracts": 10796, "ĠRecords": 10797, "Ġpreparing": 10798, "Ġpanels": 10799, "Ġrentals": 10800, "Ġdivide": 10801, "amsung": 10802, "Ġsurvival": 10803, "Ġlabour": 10804, "ĠConsider": 10805, "ĠEverything": 10806, "ELL": 10807, "Ġqualify": 10808, "Ġ808": 10809, "Ġbrothers": 10810, "Ġmountains": 10811, "Ġprotest": 10812, "Ġwooden": 10813, "ĠSandy": 10814, "ĠTriple": 10815, "Ġearnings": 10816, "Ġincorrect": 10817, "Ġecst": 10818, "Ġridic": 10819, "ĠVictoria": 10820, "Special": 10821, "Ġwarranty": 10822, "Ġrotation": 10823, "ĠCommunications": 10824, "ĠFROM": 10825, "Ġastron": 10826, "ught": 10827, "ĠTransportation": 10828, "ĠBMW": 10829, "Ġunexpected": 10830, "150": 10831, "250": 10832, "Ass": 10833, "Bel": 10834, "Hz": 10835, "dig": 10836, "kind": 10837, "liam": 10838, "mother": 10839, "table": 10840, "uating": 10841, "vit": 10842, "viously": 10843, "Ã¡": 10844, "Ġtale": 10845, "Ġwishes": 10846, "Ġcig": 10847, "Ġcust": 10848, "Ġber": 10849, "Ġbes": 10850, "Ġpul": 10851, "Ġdiam": 10852, "Ġthro": 10853, "entials": 10854, "Ġloy": 10855, "stic": 10856, "ĠSM": 10857, "Ġbearing": 10858, "ĠTel": 10859, "aco": 10860, "acent": 10861, "idal": 10862, "ĠAk": 10863, "ĠAle": 10864, "ĠCemetery": 10865, "amics": 10866, "olid": 10867, "Ġstraw": 10868, "ĠPope": 10869, "ĠPablo": 10870, "ĠBron": 10871, "Ġanarch": 10872, "ĠWinner": 10873, "Ġproport": 10874, "ĠDD": 10875, "ĠDiv": 10876, "ĠHig": 10877, "ĠFant": 10878, "Ġsectors": 10879, "ĠRos": 10880, "ĠRome": 10881, "ĠRaz": 10882, "istrib": 10883, "ĠNap": 10884, "ĠGR": 10885, "Ġexempt": 10886, "ĠJake": 10887, "Ġchoosing": 10888, "Ġje": 10889, "Ġjail": 10890, "Ġdoctrine": 10891, "ĠUk": 10892, "Ġworn": 10893, "aping": 10894, "apters": 10895, "ĠStalin": 10896, "Ġcontrary": 10897, "Ġtrim": 10898, "Ġtrucks": 10899, "Ġaged": 10900, "ĠVersion": 10901, "Ġheritage": 10902, "Ġarray": 10903, "orship": 10904, "Ġtwist": 10905, "Ġampl": 10906, "Ġbacked": 10907, "complete": 10908, "ontin": 10909, "atching": 10910, "ĠCloud": 10911, "oots": 10912, "Ġformats": 10913, "Ġgenerous": 10914, "Ġconfused": 10915, "Ġdesigners": 10916, "Ġpossess": 10917, "Ġreceives": 10918, "Ġexplo": 10919, "Ġequipped": 10920, "Ġinvestments": 10921, "ĠIndex": 10922, "Ġlineup": 10923, "ORK": 10924, "Ġspecialist": 10925, "porations": 10926, "ĠSteel": 10927, "Ask": 10928, "Ġdiscussing": 10929, "Ġresponsibilities": 10930, "Char": 10931, "Ġparticipated": 10932, "askoln": 10933, "Ġblogs": 10934, "ĠJustin": 10935, "Ġviolations": 10936, "Ġreportedly": 10937, "Ġdestruction": 10938, "ĠAustin": 10939, "Ġdepends": 10940, "Ġcatalog": 10941, "Ġthreats": 10942, "Ġprogressive": 10943, "Ġlawsuit": 10944, "Ġbulbs": 10945, "Ġreveals": 10946, "ĠPalest": 10947, "ammers": 10948, "Ġmedications": 10949, "ĠIndiana": 10950, "Ġearthqu": 10951, "ĠTrek": 10952, "Ġinitiatives": 10953, "OVE": 10954, "Ġpitching": 10955, "ĠType": 10956, "Ġsuffer": 10957, "Ġsponsored": 10958, "ĠEquity": 10959, "ĠUltimate": 10960, "Ġdisappointed": 10961, "Ġantibody": 10962, "Ġpilot": 10963, "Ġdesktop": 10964, "Ġsubstantial": 10965, "ĠHawai": 10966, "Ġlaundry": 10967, "ĠFriends": 10968, "Ġagricultural": 10969, "ĠCollins": 10970, "Ġlegendary": 10971, "Ġvitamin": 10972, "Ġremembered": 10973, "Ġcassette": 10974, "Ġbrutal": 10975, "ĠAthlet": 10976, "Ġcurrency": 10977, "Ġbrahmana": 10978, "askolnikov": 10979, "600": 10980, "71": 10981, "94": 10982, "97": 10983, "Disc": 10984, "Law": 10985, "Monday": 10986, "Published": 10987, "West": 10988, "Whether": 10989, "di": 10990, "gom": 10991, "ghed": 10992, "sized": 10993, "yes": 10994, "Ġ]": 10995, "Ġ~": 10996, "Ġtheatre": 10997, "Ġcited": 10998, "itan": 10999, "enot": 11000, "inge": 11001, "Ġpace": 11002, "Ġhire": 11003, "asures": 11004, "omal": 11005, "Ġliable": 11006, "Ġreception": 11007, "Ġrehab": 11008, "Ġgaming": 11009, "Ġgym": 11010, "ĠSantiago": 11011, "ĠTS": 11012, "ĠAC": 11013, "ĠCreat": 11014, "ĠCell": 11015, "ima": 11016, "imedia": 11017, "ĠMess": 11018, "Ġstarter": 11019, "Ġhesit": 11020, "ĠPool": 11021, "ĠPayne": 11022, "ĠBaker": 11023, "tery": 11024, "illance": 11025, "Ġash": 11026, "ifted": 11027, "Ġ110": 11028, "ĠHost": 11029, "oof": 11030, "Ġconsole": 11031, "ĠRain": 11032, "ĠLuke": 11033, "ĠNation": 11034, "ĠNob": 11035, "Ġrings": 11036, "ĠGO": 11037, "ĠGib": 11038, "ĠGraham": 11039, "ĠEth": 11040, "ĠEaster": 11041, "Ġsuitable": 11042, "Ġdozens": 11043, "ĠUEFA": 11044, "aka": 11045, "Ġcompact": 11046, "Ġclar": 11047, "uez": 11048, "Ġcontamin": 11049, "achy": 11050, "ulture": 11051, "Ġunfortunately": 11052, "Ġspir": 11053, "ĠChan": 11054, "Ġpepper": 11055, "Ġpreview": 11056, "Ġpron": 11057, "Ġflights": 11058, "ĠProdu": 11059, "Ġteammates": 11060, "Ġbranch": 11061, "Ġslave": 11062, "Ġslots": 11063, "anked": 11064, "ĠAdWords": 11065, "Ġsignature": 11066, "ĠArctic": 11067, "ĠBlock": 11068, "Ġhappiness": 11069, "Ġcontinu": 11070, "Ġdirectors": 11071, "Ġexploration": 11072, "Hey": 11073, "Ġlightly": 11074, "ĠConstruction": 11075, "author": 11076, "ORT": 11077, "Ġnewsletter": 11078, "Ġpromises": 11079, "Ġ1993": 11080, "player": 11081, "arently": 11082, "arring": 11083, "Ġairline": 11084, "ĠEnc": 11085, "Ġenjoyable": 11086, "ĠEmploy": 11087, "Ġpackaging": 11088, "ĠGuy": 11089, "Ġcombine": 11090, "Ġfootage": 11091, "Ġ1984": 11092, "Ġfailing": 11093, "Ġstatist": 11094, "ĠAgree": 11095, "Ġnicely": 11096, "Photo": 11097, "Ġdifficulties": 11098, "Ġensuring": 11099, "........": 11100, "ĠRecord": 11101, "Ġmomentum": 11102, "burse": 11103, "Ġpulling": 11104, "Ġpersu": 11105, "Ġpropri": 11106, "Ġsends": 11107, "ILITY": 11108, "Ġexecuted": 11109, "Ġmaintaining": 11110, "Ġimmigration": 11111, "Ġhyper": 11112, "Ġcontainer": 11113, "Ġconversations": 11114, "Ġaims": 11115, "ĠBenj": 11116, "Ġsubscription": 11117, "Ġfarmers": 11118, "ĠMontana": 11119, "Ġcitizen": 11120, "Ġfolder": 11121, "ĠCambridge": 11122, "ĠInsurance": 11123, "Ġincredibly": 11124, "Ġcontrolling": 11125, "igrants": 11126, "ĠLearning": 11127, "Ġoccasionally": 11128, "Ġoxy": 11129, "Ġnursing": 11130, "ĠERISA": 11131, "Ġsacrific": 11132, "Ġexplanation": 11133, "semble": 11134, "Ġphrase": 11135, "President": 11136, "Ġhedge": 11137, "liament": 11138, "''": 11139, "Green": 11140, "Mal": 11141, "RB": 11142, "bld": 11143, "eared": 11144, "opper": 11145, "vol": 11146, "vious": 11147, "zed": 11148, "Ã¼": 11149, "rets": 11150, "itol": 11151, "isdom": 11152, "Ġbust": 11153, "Ġfence": 11154, "Ġpix": 11155, "Ġmaj": 11156, "Ġinaccur": 11157, "Ġhilar": 11158, "iciary": 11159, "Ġlbs": 11160, "Ġloving": 11161, "ĠSA": 11162, "ĠSau": 11163, "ĠSites": 11164, "Ġbell": 11165, "ĠTrial": 11166, "ĠCrim": 11167, "imens": 11168, "urse": 11169, "igon": 11170, "Ġstake": 11171, "ira": 11172, "ĠBudd": 11173, "Ġ101": 11174, "ĠDI": 11175, "ĠDJ": 11176, "ĠDak": 11177, "ĠDays": 11178, "ĠDoty": 11179, "Ġcongress": 11180, "Ġdear": 11181, "unge": 11182, "abling": 11183, "ĠLemon": 11184, "ĠEN": 11185, "Ġalien": 11186, "outing": 11187, "outheast": 11188, "Ġchant": 11189, "Ġchronic": 11190, "arding": 11191, "ĠUM": 11192, "agers": 11193, "Ġoutcome": 11194, "ĠKh": 11195, "perform": 11196, "Ġenroll": 11197, "Ġmyster": 11198, "Ġrecru": 11199, "Ġthemes": 11200, "Ġrolling": 11201, "itty": 11202, "Ġ56": 11203, "ictions": 11204, "Thursday": 11205, "pha": 11206, "Ġtrailer": 11207, "iox": 11208, "ĠProper": 11209, "ĠDeath": 11210, "ĠDegree": 11211, "azi": 11212, "cery": 11213, "White": 11214, "Ġplanes": 11215, "Ġobst": 11216, "ĠTrue": 11217, "Ġviewers": 11218, "ĠMarine": 11219, "aneous": 11220, "ĠAppellant": 11221, "ĠAmbass": 11222, "ĠGeor": 11223, "Ġradical": 11224, "Ġtracking": 11225, "Ġprotecting": 11226, "visor": 11227, "ĠSpeed": 11228, "Ġexamined": 11229, "Ġsweep": 11230, "Ġextraordinary": 11231, "Ġengineers": 11232, "Ġgraduated": 11233, "Ġclicking": 11234, "Ġsensit": 11235, "Ġconvicted": 11236, "Ġholidays": 11237, "Ġnationwide": 11238, "ĠSimilar": 11239, "ĠLawrence": 11240, "Ġcrossed": 11241, "Ġultra": 11242, "ĠBuild": 11243, "Ġtargeted": 11244, "Ġgarlic": 11245, "Ġstruggled": 11246, "Ġstruggling": 11247, "THE": 11248, "Ġdemonstrated": 11249, "Ġappreciated": 11250, "Ġtower": 11251, "Ġvenues": 11252, "Ġjournalists": 11253, "Ġdispute": 11254, "ĠNavy": 11255, "ĠSolutions": 11256, "Ġaccommodate": 11257, "Despite": 11258, "Ġfrozen": 11259, "ĠForest": 11260, "Ġconvenience": 11261, "ĠOlympics": 11262, "Ġlaughing": 11263, "Ġresolve": 11264, "Ġconfidential": 11265, "Ġenemies": 11266, "Ġtrademarks": 11267, "ĠPersonal": 11268, "Ġinvolvement": 11269, "Ġvendors": 11270, "ĠBroadway": 11271, "ĠGardner": 11272, "ĠOxford": 11273, "Ġanxiety": 11274, "Ġluxury": 11275, "Ġwrapped": 11276, "Ġtaxpayers": 11277, "ĠHTML": 11278, "Ġinflamm": 11279, "Ġremoval": 11280, "Ġelegant": 11281, "ĠLegislature": 11282, "Ġjewelry": 11283, "orfiry": 11284, "etermined": 11285, "Ġsimultaneously": 11286, "ARRANT": 11287, "Ġenormous": 11288, "gomery": 11289, "bldns": 11290, "81": 11291, "Bul": 11292, "Dep": 11293, "Fi": 11294, "Ret": 11295, "Sep": 11296, "jo": 11297, "oa": 11298, "pool": 11299, "Ġvel": 11300, "inf": 11301, "onz": 11302, "ingham": 11303, "Ġpor": 11304, "Ġpic": 11305, "aned": 11306, "Ġtoile": 11307, "Ġthrows": 11308, "omatic": 11309, "Ġlighter": 11310, "Ġrew": 11311, "stall": 11312, "rot": 11313, "ĠIRS": 11314, "ĠSalt": 11315, "ĠTerry": 11316, "ĠCAN": 11317, "urb": 11318, "ĠMind": 11319, "olen": 11320, "ĠPick": 11321, "ĠPaper": 11322, "ĠBody": 11323, "ĠWR": 11324, "ĠHE": 11325, "ĠHit": 11326, "ĠFocus": 11327, "ĠRoss": 11328, "Ġorche": 11329, "isting": 11330, "ĠEST": 11331, "umph": 11332, "Ġnoting": 11333, "orted": 11334, "Ġshame": 11335, "ĠOwn": 11336, "Ġaluminum": 11337, "Ġadapter": 11338, "ĠKurt": 11339, "ĠStars": 11340, "Ġimper": 11341, "Ġcontents": 11342, "Ġtrick": 11343, "Ġpermit": 11344, "Ġpermitted": 11345, "aved": 11346, "Ġspoon": 11347, "ĠChallen": 11348, "rup": 11349, "ovo": 11350, "Ġbugs": 11351, "ĠRequ": 11352, "Ġtransmitted": 11353, "Ġtransactions": 11354, "ĠClimate": 11355, "ĠShipping": 11356, "Ġdeter": 11357, "ugg": 11358, "Ġcomplement": 11359, "being": 11360, "there": 11361, "Ġglory": 11362, "Ġdesignated": 11363, "Ġpatents": 11364, "ĠTruth": 11365, "ĠCarter": 11366, "Ġsalary": 11367, "Still": 11368, "Story": 11369, "Ġreleasing": 11370, "Ġparks": 11371, "Ġparagraph": 11372, "Ġcouples": 11373, "ĠPrinciples": 11374, "ĠDeputy": 11375, "Ġpressed": 11376, "Ġcompetitors": 11377, "Ġamongst": 11378, "ĠGrad": 11379, "Ġtempor": 11380, "ĠMinistry": 11381, "Ġhearts": 11382, "Ġexcitement": 11383, "ĠTravis": 11384, "Ġmixing": 11385, "Ġimagination": 11386, "ĠBrother": 11387, "Ġfreshman": 11388, "Ġinterviewed": 11389, "Ġexecutives": 11390, "Ġinfluenza": 11391, "Ġdressing": 11392, "IMIT": 11393, "Ġaffairs": 11394, "Ġspeaks": 11395, "Ġstrengthen": 11396, "Ġcelebrated": 11397, "Ġfirmly": 11398, "Ġminority": 11399, "ĠKrist": 11400, "Ġaimed": 11401, "ĠBelg": 11402, "Ġmeaningful": 11403, "ĠMagic": 11404, "Ġembarrass": 11405, "Ġfragr": 11406, "Ġmistakes": 11407, "Ġsubstance": 11408, "ĠOperation": 11409, "Ġquietly": 11410, "ĠEnterprise": 11411, "ĠElectronics": 11412, "Ġadvisory": 11413, "Ġflexibility": 11414, "ĠRaymond": 11415, "Ġeliminate": 11416, "ĠCele": 11417, "Ġpodcast": 11418, "Ġsuspended": 11419, "Ġremarkable": 11420, "ĠBudget": 11421, "Ġbuttons": 11422, "ĠMLB": 11423, "ifferent": 11424, "Ġreimburse": 11425, "Ġceremony": 11426, "ĠAnthony": 11427, "enotrans": 11428, "bldnsd": 11429, "Br": 11430, "Press": 11431, "Sen": 11432, "card": 11433, "fin": 11434, "fire": 11435, "human": 11436, "lar": 11437, "mans": 11438, "mits": 11439, "tw": 11440, "uana": 11441, "vo": 11442, "yse": 11443, "Ġtear": 11444, "Ġtang": 11445, "era": 11446, "Ġcub": 11447, "isers": 11448, "enberg": 11449, "esis": 11450, "Ġfruits": 11451, "ouver": 11452, "Ġpad": 11453, "Ġpist": 11454, "antha": 11455, "alm": 11456, "Ġmild": 11457, "Ġmold": 11458, "Ġdough": 11459, "Ġlens": 11460, "rov": 11461, "Ġgently": 11462, "ĠIron": 11463, "ĠSud": 11464, "ĠTXT": 11465, "utter": 11466, "ĠAV": 11467, "ĠCart": 11468, "ĠCool": 11469, "ĠMand": 11470, "ĠMoore": 11471, "Ġstom": 11472, "Ġstats": 11473, "Ġwhis": 11474, "Ġanth": 11475, "ĠDale": 11476, "ĠDuke": 11477, "ĠHur": 11478, "ĠFle": 11479, "ĠFel": 11480, "ĠFalls": 11481, "rior": 11482, "raine": 11483, "isticated": 11484, "Ġramp": 11485, "Ġranges": 11486, "Ġexit": 11487, "Ġexch": 11488, "ĠEV": 11489, "ĠEss": 11490, "uming": 11491, "opt": 11492, "open": 11493, "ĠOcean": 11494, "acking": 11495, "Ġcomply": 11496, "Ġclip": 11497, "Ġenfor": 11498, "ĠThink": 11499, "Ġmystery": 11500, "aux": 11501, "ĠVin": 11502, "Ġspoken": 11503, "Ġ1950": 11504, "Ġ53": 11505, "Those": 11506, "Ġpointing": 11507, "Ġgrace": 11508, "Ġediting": 11509, "Ġgloss": 11510, "Ġobl": 11511, "Ġcenters": 11512, "Ġbreach": 11513, "ĠConn": 11514, "ĠMarc": 11515, "ĠMariners": 11516, "Ġlineback": 11517, "Ġpresentations": 11518, "affle": 11519, "Ġkinda": 11520, "Ġfundra": 11521, "Ġmarine": 11522, "ĠManhattan": 11523, "ĠEnjoy": 11524, "lementary": 11525, "ĠPrincess": 11526, "ĠMadison": 11527, "ĠNotes": 11528, "Ġ1982": 11529, "Ġgirlfriend": 11530, "aura": 11531, "Ġaccepting": 11532, "Ġcritics": 11533, "Ġfinancing": 11534, "ĠPerry": 11535, "Ġinvestigating": 11536, "ĠValent": 11537, "Ġcalm": 11538, "Ġvoting": 11539, "ĠSimon": 11540, "flow": 11541, "ĠIntel": 11542, "Ġutter": 11543, "Ġutility": 11544, "ĠLaure": 11545, "ĠMexican": 11546, "ĠMalays": 11547, "ĠModern": 11548, "ĠBreak": 11549, "Ġreflects": 11550, "Ġreflected": 11551, "Ġprotocol": 11552, "Black": 11553, "ijuana": 11554, "ĠATF": 11555, "Ġfurnace": 11556, "ĠSingle": 11557, "Ġhonestly": 11558, "Ġgraphic": 11559, "ĠJennifer": 11560, "Ġcorresponding": 11561, "ĠOlympic": 11562, "ĠBrandon": 11563, "ĠCosta": 11564, "oscopy": 11565, "FORM": 11566, "Ġsophomore": 11567, "Ġskiing": 11568, "ĠTurkey": 11569, "Ġstimul": 11570, "Ġpitcher": 11571, "dogs": 11572, "ĠPerformance": 11573, "Ġrival": 11574, "Ġimplications": 11575, "Remember": 11576, "Ġdivided": 11577, "ĠRedskins": 11578, "Ġfertil": 11579, "ĠPittsburgh": 11580, "Ġjurisd": 11581, "Ġtremendous": 11582, "Ġmerchandise": 11583, "84": 11584, "Current": 11585, "Dan": 11586, "Down": 11587, "Def": 11588, "Home": 11589, "Je": 11590, "aft": 11591, "best": 11592, "bably": 11593, "cost": 11594, "dney": 11595, "door": 11596, "gain": 11597, "lon": 11598, "may": 11599, "oz": 11600, "och": 11601, "rons": 11602, "tics": 11603, "Ġtum": 11604, "Ġtorn": 11605, "inces": 11606, "Ġslic": 11607, "Ġwars": 11608, "Ġwrap": 11609, "Ġcm": 11610, "Ġbikes": 11611, "Ġfallen": 11612, "Ġfears": 11613, "Ġpig": 11614, "Ġpicks": 11615, "aria": 11616, "Ġmoon": 11617, "Ġdread": 11618, "lend": 11619, "leep": 11620, "stop": 11621, "stick": 11622, "ĠSEC": 11623, "Ġbears": 11624, "ĠTru": 11625, "ethe": 11626, "ĠAp": 11627, "ĠABC": 11628, "ĠCisco": 11629, "ĠMater": 11630, "Ġster": 11631, "chair": 11632, "ĠPin": 11633, "ĠBald": 11634, "ĠBhatt": 11635, "keley": 11636, "keeper": 11637, "ĠWARRANT": 11638, "ifully": 11639, "ĠFried": 11640, "ĠRF": 11641, "ĠRap": 11642, "ulum": 11643, "Ġdeck": 11644, "unal": 11645, "ĠLane": 11646, "ĠLIMIT": 11647, "ĠNelson": 11648, "ques": 11649, "ante": 11650, "Ġnotification": 11651, "Ġshadow": 11652, "ĠOz": 11653, "ĠOscar": 11654, "acked": 11655, "Ġneuro": 11656, "ipt": 11657, "bery": 11658, "ĠStone": 11659, "Ġreserves": 11660, "ailand": 11661, "Ġperpet": 11662, "Ġagg": 11663, "Ġunions": 11664, "Ġrecre": 11665, "Ġscope": 11666, "ishn": 11667, "Ġroots": 11668, "inkle": 11669, "Ġflesh": 11670, "Ġunderlying": 11671, "Ġwanting": 11672, "Ġbuzz": 11673, "encer": 11674, "Ġsubt": 11675, "Ġpreserve": 11676, "aha": 11677, "Ġowns": 11678, "ĠAnne": 11679, "ĠAnimal": 11680, "Ġinstantly": 11681, "Ġrape": 11682, "Ġreadily": 11683, "Ġmemor": 11684, "ĠClay": 11685, "axy": 11686, "Ġexperiments": 11687, "Ġcheaper": 11688, "ĠAdobe": 11689, "azed": 11690, "Ġbooked": 11691, "Ġdeficit": 11692, "ĠAssemb": 11693, "ĠBeh": 11694, "Ġcontinuous": 11695, "Ġvaried": 11696, "ĠConvention": 11697, "lishing": 11698, "brid": 11699, "ĠChristopher": 11700, "ĠMcK": 11701, "vironments": 11702, "overty": 11703, "Ġnonprofit": 11704, "Ġ1983": 11705, "Ġ1986": 11706, "Ġ1988": 11707, "Ġpoliticians": 11708, "Ġreduces": 11709, "Ġpurchasing": 11710, "ĠCorps": 11711, "ĠPerfect": 11712, "Ġstere": 11713, "Ġdescribing": 11714, "ilipp": 11715, "ĠMonth": 11716, "ĠUpon": 11717, "ĠUpdate": 11718, "Ġintegrity": 11719, "ĠJean": 11720, "Ġcrossing": 11721, "Ġdresses": 11722, "Ġdressed": 11723, "ĠMorgan": 11724, "Ġfrequent": 11725, "Ġimpression": 11726, "ĠClean": 11727, "Ġjumped": 11728, "Ġfolk": 11729, "party": 11730, "Ġachievement": 11731, "Ġmailing": 11732, "Ġignore": 11733, "ĠSummit": 11734, "Ġvariations": 11735, "Ġreminded": 11736, "Ġpaintings": 11737, "Ġdeparture": 11738, "Ġethnic": 11739, "Ġsubstantially": 11740, "ĠFollowing": 11741, "Ġfascinating": 11742, "Ġswimming": 11743, "Ġexplosion": 11744, "Related": 11745, "Ġmoisture": 11746, "Ġsymbol": 11747, "Ġolive": 11748, "Ġsyndrome": 11749, "Ġtomatoes": 11750, "Ġaccordance": 11751, "ĠApplied": 11752, "Learn": 11753, "ĠOntario": 11754, "82": 11755, "BER": 11756, "Far": 11757, "God": 11758, "LD": 11759, "LR": 11760, "Mod": 11761, "Saturday": 11762, "TO": 11763, "TY": 11764, "Ty": 11765, "Tech": 11766, "Washington": 11767, "bits": 11768, "mons": 11769, "oks": 11770, "pad": 11771, "ql": 11772, "sur": 11773, "vard": 11774, "Ġtours": 11775, "rek": 11776, "oni": 11777, "Ġsust": 11778, "isode": 11779, "Ġbold": 11780, "Ġbrowse": 11781, "Ġpinch": 11782, "Ġinev": 11783, "Ġnurse": 11784, "Ġeager": 11785, "Ġgau": 11786, "ĠSFT": 11787, "acre": 11788, "idity": 11789, "otion": 11790, "etter": 11791, "ĠARE": 11792, "ĠCould": 11793, "ĠCome": 11794, "aments": 11795, "ĠMoon": 11796, "Ġstolen": 11797, "ĠPale": 11798, "ĠBoo": 11799, "terior": 11800, "ĠDom": 11801, "ĠDra": 11802, "Ġconce": 11803, "Ġcontend": 11804, "ĠFac": 11805, "Ġseal": 11806, "ĠRav": 11807, "ĠRES": 11808, "ĠRule": 11809, "Ġoral": 11810, "Ġdeployment": 11811, "ĠLG": 11812, "ĠLi": 11813, "ĠLarge": 11814, "ĠNone": 11815, "ĠNPC": 11816, "ĠNokia": 11817, "Ġrif": 11818, "Ġrush": 11819, "ĠEc": 11820, "Ġshore": 11821, "Ġshipped": 11822, "Ġshaped": 11823, "elle": 11824, "ĠJuan": 11825, "ivest": 11826, "agen": 11827, "Ġkernel": 11828, "ĠKy": 11829, "Ġtrace": 11830, "Ġappet": 11831, "Ġquoted": 11832, "Ġ350": 11833, "aval": 11834, "Ġspo": 11835, "Ġspray": 11836, "Ġscar": 11837, "ints": 11838, "oyd": 11839, "olds": 11840, "iances": 11841, "Ġfinals": 11842, "Information": 11843, "ĠAng": 11844, "Ġ88": 11845, "ĠArn": 11846, "Ġretrie": 11847, "ffective": 11848, "ĠBloom": 11849, "Ġcrust": 11850, "oker": 11851, "ĠAlliance": 11852, "INE": 11853, "Ġrefres": 11854, "ĠTrad": 11855, "ĠOrange": 11856, "Ġprevention": 11857, "ATED": 11858, "idding": 11859, "Ġengagement": 11860, "Ġbeneficial": 11861, "ĠGods": 11862, "Ġstudying": 11863, "Ġsubjective": 11864, "ASE": 11865, "Ġphysically": 11866, "Ġphysicians": 11867, "ĠSecure": 11868, "ĠChef": 11869, "Ġgrounds": 11870, "Ġopposing": 11871, "Ġfocusing": 11872, "Ġvolunt": 11873, "Ġstepped": 11874, "ĠImage": 11875, "Ġdamn": 11876, "Ġobjectives": 11877, "Ġengineer": 11878, "ĠRegister": 11879, "ĠHeritage": 11880, "Ġhoped": 11881, "Ġplanted": 11882, "ĠPalin": 11883, "ĠClear": 11884, "Ġmounted": 11885, "holders": 11886, "Ġbanking": 11887, "Ġadvertise": 11888, "Ġsatisfaction": 11889, "Ġdelivering": 11890, "Ġanalysts": 11891, "Ġmechanism": 11892, "Ġexplaining": 11893, "Ġforums": 11894, "Ġignored": 11895, "trans": 11896, "Ġmaxim": 11897, "ĠMontgomery": 11898, "ĠIdent": 11899, "Ġnutrition": 11900, "Frank": 11901, "Ġpursue": 11902, "ĠLeader": 11903, "Ġconfiguration": 11904, "Ġtribute": 11905, "Ġburned": 11906, "Ġsophisticated": 11907, "Ġlaughed": 11908, "ĠCommunication": 11909, "Ġscholarship": 11910, "bourne": 11911, "Ġrejected": 11912, "ĠOakland": 11913, "Ġconventional": 11914, "Ġsurvivors": 11915, "blogspot": 11916, "ĠVillage": 11917, "appropriate": 11918, "ĠAmbassador": 11919, ")(": 11920, ".),": 11921, "FO": 11922, "MB": 11923, "Min": 11924, "PH": 11925, "San": 11926, "bling": 11927, "direct": 11928, "gate": 11929, "hh": 11930, "hist": 11931, "oft": 11932, "walk": 11933, "Ã¨": 11934, "atar": 11935, "Ġcit": 11936, "Ġcaucus": 11937, "Ġfut": 11938, "Ġpork": 11939, "Ġmuff": 11940, "Ġmigration": 11941, "Ġmunicipal": 11942, "Ġlos": 11943, "Ġlane": 11944, "roc": 11945, "Ġgreet": 11946, "ĠTen": 11947, "Ġyard": 11948, "ĠCou": 11949, "ĠCapt": 11950, "ĠCNN": 11951, "ĠMerc": 11952, "Ġstairs": 11953, "Ġstopping": 11954, "ĠPle": 11955, "ĠPers": 11956, "ĠPie": 11957, "ĠPorfiry": 11958, "ĠBid": 11959, "ĠBott": 11960, "ĠBBC": 11961, "ĠDat": 11962, "ĠDrag": 11963, "Ġattain": 11964, "ĠHills": 11965, "ĠFuture": 11966, "Ġseating": 11967, "ĠRacing": 11968, "esty": 11969, "una": 11970, "ĠLock": 11971, "ĠNa": 11972, "ĠGulf": 11973, "ĠEEA": 11974, "Ġnotices": 11975, "Ġships": 11976, "Ġalike": 11977, "Ġabstract": 11978, "apolis": 11979, "ieval": 11980, "rypt": 11981, "Ġteens": 11982, "ĠKan": 11983, "Ġenvironments": 11984, "izations": 11985, "Ġevangel": 11986, "Ġquotes": 11987, "Ġquadr": 11988, "onda": 11989, "Ġunh": 11990, "Ġoverl": 11991, "Ġoverview": 11992, "Ġknock": 11993, "ĠWebsite": 11994, "Ġprest": 11995, "Ġprayer": 11996, "ancouver": 11997, "Ġseeks": 11998, "Ġactively": 11999, "ĠUnivers": 12000, "Ġdonated": 12001, "Ġimpr": 12002, "ello": 12003, "Ġbron": 12004, "Ġslip": 12005, "Ġtransformation": 12006, "ĠAdams": 12007, "Ġgrateful": 12008, "Ġprogrammer": 12009, "ĠArgent": 12010, "Ġplacement": 12011, "Ġcurric": 12012, "Ġrefuse": 12013, "Ġreferring": 12014, "lington": 12015, "enna": 12016, "âĢ¦âĢĿ": 12017, "ĠConcer": 12018, "Ġgrows": 12019, "127": 12020, "ommy": 12021, "Ġprominent": 12022, "ISTR": 12023, "Ġidentifying": 12024, "ospice": 12025, "ĠPrinc": 12026, "ĠBridge": 12027, "Ġauthorized": 12028, "Ġbarrier": 12029, "ĠCorporate": 12030, "ĠSpeaker": 12031, "Ġcollections": 12032, "Ġrounds": 12033, "Ġattendance": 12034, "Ġassociate": 12035, "Ġsnaps": 12036, "Ġtalented": 12037, "ĠCommissioner": 12038, "Ġdocumentary": 12039, "Ġbeaten": 12040, "Ġsettle": 12041, "Ġsilence": 12042, "Ġdownloaded": 12043, "Ġscientist": 12044, "Ġrolls": 12045, "Ġautomatic": 12046, "Ġinspire": 12047, "Ġirrit": 12048, "Ġoccupation": 12049, "ĠSurvey": 12050, "Ġtemperatures": 12051, "ĠChampion": 12052, "ĠAdministr": 12053, "Ġdissenting": 12054, "ĠInfinity": 12055, "Ġderiv": 12056, "Ġspectrum": 12057, "Ġspectacular": 12058, "á¹£": 12059, "á¹ĩ": 12060, "Ġforgotten": 12061, "Ġvanilla": 12062, "Ġuniversal": 12063, "Ġpitches": 12064, "Ġresolved": 12065, "Ġrubber": 12066, "html": 12067, "izzard": 12068, "ĠRestaurant": 12069, "Ġconstructed": 12070, "Ġinfections": 12071, "Ġinventory": 12072, "Ġanticipated": 12073, "Ġmandate": 12074, "Ġembrace": 12075, "Ġhammer": 12076, "Ġauction": 12077, "Ġadequate": 12078, "Ġirrelevant": 12079, "Ġacknowledged": 12080, "Ġoverwhelming": 12081, "ospitals": 12082, "Ġrendered": 12083, "Ġrhyth": 12084, "Ġhilarious": 12085, "Gener": 12086, "GSS": 12087, "Looking": 12088, "Michael": 12089, "PG": 12090, "Ps": 12091, "SD": 12092, "Sund": 12093, "Sorry": 12094, "Very": 12095, "Win": 12096, "brew": 12097, "cm": 12098, "gence": 12099, "kward": 12100, "matic": 12101, "zone": 12102, "Ã¶": 12103, "heat": 12104, "Ġwisdom": 12105, "attered": 12106, "Ġorientation": 12107, "Ġcam": 12108, "Ġcir": 12109, "Ġcinnamon": 12110, "orph": 12111, "isa": 12112, "isons": 12113, "enz": 12114, "Ġbom": 12115, "Ġfiction": 12116, "Ġfisher": 12117, "Ġpunch": 12118, "Ġmarch": 12119, "Ġmolec": 12120, "Ġdirty": 12121, "Ġhub": 12122, "Ġthirty": 12123, "Ġlun": 12124, "Ġloop": 12125, "Ġreass": 12126, "ĠeBay": 12127, "ĠSep": 12128, "ĠSov": 12129, "ĠSaint": 12130, "ĠSafe": 12131, "ĠTower": 12132, "ĠTIM": 12133, "ĠTotal": 12134, "acles": 12135, "idth": 12136, "idges": 12137, "Ġyell": 12138, "ĠApr": 12139, "ĠCarm": 12140, "ĠCurt": 12141, "ĠMix": 12142, "olas": 12143, "ĠPas": 12144, "ĠPoly": 12145, "ĠBass": 12146, "ĠBene": 12147, "ĠBuck": 12148, "Ġanger": 12149, "ĠDutch": 12150, "ĠFile": 12151, "Ġsemin": 12152, "Ġdefect": 12153, "than": 12154, "ĠLic": 12155, "ĠGer": 12156, "ĠGas": 12157, "ĠGord": 12158, "ĠGift": 12159, "Ġvessel": 12160, "Ġnotified": 12161, "Ġchip": 12162, "udge": 12163, "udger": 12164, "team": 12165, ".....": 12166, "Ġyours": 12167, "Ġsaves": 12168, "ĠKend": 12169, "Ġenabled": 12170, "ĠStop": 12171, "aceut": 12172, "Ġevol": 12173, "Ġevident": 12174, "Ġapple": 12175, "ĠVerm": 12176, "Ġtwin": 12177, "oyce": 12178, "cker": 12179, "angle": 12180, "Ġundergraduate": 12181, "Ġregime": 12182, "Ġinvas": 12183, "ĠReference": 12184, "Ġcoat": 12185, "Ġguilt": 12186, "Ġ67": 12187, "Ġsmiled": 12188, "ella": 12189, "ĠProp": 12190, "Ġpresum": 12191, "Ġacres": 12192, "Ġlongest": 12193, "Ġmemorial": 12194, "Ġinteraction": 12195, "ERV": 12196, "gging": 12197, "Ġdistinction": 12198, "Ġfuneral": 12199, "Ġ''": 12200, "Ġdirections": 12201, "IND": 12202, "Ġcorporations": 12203, "Ġinvested": 12204, "byss": 12205, "Ġaccessed": 12206, "Ġoperated": 12207, "Ġdried": 12208, "Ġexpecting": 12209, "shire": 12210, "ĠManufact": 12211, "ĠSteven": 12212, "Ġmusicians": 12213, "Ġbadly": 12214, "Ġportray": 12215, "amento": 12216, "Chapter": 12217, "ĠNorthwest": 12218, "product": 12219, "Ġdefending": 12220, "Ġobservations": 12221, "ĠDesk": 12222, "Ġinvestigators": 12223, "Ġtablets": 12224, "Ġseparately": 12225, "ĠRegist": 12226, "ĠFinance": 12227, "ĠPrep": 12228, "Ġfunctional": 12229, "Ġemerged": 12230, "ĠConsumer": 12231, "Ġbiological": 12232, "Ġgeomet": 12233, "ĠAdditional": 12234, "ĠSamantha": 12235, "ĠCampbell": 12236, "Ġoptimizer": 12237, "Ġprincipals": 12238, "Ġdemanding": 12239, "ĠPhilip": 12240, "ĠWallace": 12241, "Ġanalyst": 12242, "ĠVisual": 12243, "Ġstreams": 12244, "Ġtowel": 12245, "Ġdiagnosed": 12246, "ĠOrganization": 12247, "avorite": 12248, "ALLY": 12249, "ĠEntertainment": 12250, "Ġguaranteed": 12251, "Ġaccommodation": 12252, "Ġstructures": 12253, "Ġbucket": 12254, "ĠDuncan": 12255, "oretical": 12256, "interest": 12257, "Ġassembly": 12258, "ioneer": 12259, "Ġauthentic": 12260, "ĠKarenina": 12261, "ĠArkansas": 12262, "Ġallegations": 12263, "Australia": 12264, "Author": 12265, "ivestock": 12266, "87": 12267, "><": 12268, "City": 12269, "Custom": 12270, "Dou": 12271, "Food": 12272, "Kim": 12273, "Miss": 12274, "Save": 12275, "bad": 12276, "core": 12277, "found": 12278, "grand": 12279, "two": 12280, "wind": 12281, "your": 12282, "Ġtan": 12283, "Ġties": 12284, "hey": 12285, "inite": 12286, "only": 12287, "eration": 12288, "erals": 12289, "Ġsorts": 12290, "Ġsilly": 12291, "Ġwitch": 12292, "Ġoh": 12293, "Ġcher": 12294, "Ġbin": 12295, "Ġbip": 12296, "Ġbinding": 12297, "Ġbanned": 12298, "Ġpour": 12299, "Ġpension": 12300, "Ġpizza": 12301, "Ġpoverty": 12302, "Ġtoll": 12303, "aration": 12304, "Ġma": 12305, "Ġmac": 12306, "Ġindu": 12307, "Ġdancing": 12308, "Ġgate": 12309, "ĠSit": 12310, "ĠSport": 12311, "utt": 12312, "otte": 12313, "ayed": 12314, "ĠCos": 12315, "urred": 12316, "oli": 12317, "Ġstays": 12318, "Ġate": 12319, "oops": 12320, "ĠFM": 12321, "ĠFinal": 12322, "ĠFBI": 12323, "ateur": 12324, "ĠRail": 12325, "ĠRaskolnikov": 12326, "rait": 12327, "Ġorth": 12328, "ulent": 12329, "Ġdelet": 12330, "Ġdeemed": 12331, "thur": 12332, "ĠNative": 12333, "ĠNBC": 12334, "ĠGA": 12335, "ĠElementary": 12336, "Ġshine": 12337, "ĠOP": 12338, "ĠJoin": 12339, "acker": 12340, "pling": 12341, "Ġtender": 12342, "Ġcompos": 12343, "ĠThailand": 12344, "ĠStyle": 12345, "assy": 12346, "Ġspan": 12347, "Ġcommute": 12348, "eca": 12349, "Ġdeserves": 12350, "Ġprovinces": 12351, "Ġconsensus": 12352, "aware": 12353, "xton": 12354, "Ġsubd": 12355, "ĠComment": 12356, "ĠCommerce": 12357, "Ġcoinc": 12358, "Ġgoodness": 12359, "Ġ62": 12360, "Ġsmoking": 12361, "Ġsymp": 12362, "Ġtraged": 12363, "Ġentreprene": 12364, "ĠSeed": 12365, "ahu": 12366, "ĠAnaly": 12367, "Ġreads": 12368, "Ġfract": 12369, "Ġrunners": 12370, "ĠShort": 12371, "Ġgrid": 12372, "Ġgrades": 12373, "cerpt": 12374, "ĠLeft": 12375, "Ġmedi": 12376, "Ġfollowers": 12377, "Ġreply": 12378, "vernment": 12379, "Ġgenerations": 12380, "Ġrefers": 12381, "Ġbroom": 12382, "Ġlawmakers": 12383, "Ġmuscle": 12384, "ĠReports": 12385, "Ġannually": 12386, "Ġdelivers": 12387, "ĠReserved": 12388, "Ġexpects": 12389, "Ġ140": 12390, "owski": 12391, "Ġeconomics": 12392, "ĠSydney": 12393, "Ġwinds": 12394, "Ġ1981": 12395, "Ġworkshop": 12396, "Ġsuggestion": 12397, "ognitive": 12398, "mediate": 12399, "ACT": 12400, "Ġcooked": 12401, "Ġcookie": 12402, "ĠPeace": 12403, "Ġfigured": 12404, "second": 12405, "Ġsteal": 12406, "Ġtitled": 12407, "Ġregarded": 12408, "borne": 12409, "Ġcalendar": 12410, "Ġboyfriend": 12411, "Ġclosest": 12412, "Ġdeadly": 12413, "Ġseparated": 12414, "Ġcollapse": 12415, "Ġsafely": 12416, "Ġtourism": 12417, "Ġrevision": 12418, "Ġdivine": 12419, "Ġcatches": 12420, "Ġpartnerships": 12421, "Ġsettlement": 12422, "Ġcampaigns": 12423, "Ġqualifying": 12424, "ĠUtopia": 12425, "ĠCapitol": 12426, "Ġpremier": 12427, "Ġmedication": 12428, "Ġliterary": 12429, "Ġunde": 12430, "Ġconsultation": 12431, "Ġestablishing": 12432, "Ġmurd": 12433, "Ġranking": 12434, "Ġexclusively": 12435, "DAY": 12436, "Ġnewspapers": 12437, "Ġtranslated": 12438, "Ġsuspected": 12439, "Ġcrying": 12440, "Ġadvisor": 12441, "Ġclimbing": 12442, "Ġpowered": 12443, "Report": 12444, "ĠStanley": 12445, "Step": 12446, "ĠCustomer": 12447, "Ġdramatically": 12448, "ĠWalter": 12449, "Ġacknowledge": 12450, "ĠAudio": 12451, "represent": 12452, "iatric": 12453, "ĠIndustry": 12454, "ĠAgainst": 12455, "Ġvendor": 12456, "ĠPhillips": 12457, "Ġrevolutionary": 12458, "charged": 12459, "Ġtrigger": 12460, "ĠDodgers": 12461, "Wednesday": 12462, "ĠNikon": 12463, "ĠDuo": 12464, "Ġcontroversial": 12465, "ĠPrivate": 12466, "Ġsearches": 12467, "Ġteaspoon": 12468, "Ġconjunction": 12469, "ĠTapestry": 12470, "Ġcompanion": 12471, "Ġscandal": 12472, "ĠDakota": 12473, "Ġstomach": 12474, "\"),": 12475, "BM": 12476, "Bre": 12477, "Business": 12478, "EP": 12479, "SO": 12480, "Sat": 12481, "UK": 12482, "bes": 12483, "bone": 12484, "bound": 12485, "cul": 12486, "cies": 12487, "df": 12488, "mouth": 12489, "nan": 12490, "pin": 12491, "pread": 12492, "Ġ%": 12493, "ĨĴ": 12494, "Ġtension": 12495, "held": 12496, "inarian": 12497, "Ġsacks": 12498, "Ġsoup": 12499, "Ġwides": 12500, "Ġod": 12501, "Ġcous": 12502, "isations": 12503, "enities": 12504, "Ġbonds": 12505, "Ġfake": 12506, "Ġpound": 12507, "angh": 12508, "anium": 12509, "arre": 12510, "Ġmaker": 12511, "Ġinherent": 12512, "Ġinaug": 12513, "Ġhill": 12514, "Ġhood": 12515, "icut": 12516, "icular": 12517, "asa": 12518, "ller": 12519, "start": 12520, "stairs": 12521, "ĠIL": 12522, "ĠSant": 12523, "ĠTes": 12524, "ĠTai": 12525, "otive": 12526, "ayment": 12527, "ĠAqu": 12528, "ĠAaron": 12529, "ĠAIDS": 12530, "ĠCarn": 12531, "ĠCinc": 12532, "ĠCert": 12533, "imm": 12534, "ims": 12535, "igence": 12536, "ilitation": 12537, "ĠManc": 12538, "ĠPath": 12539, "ĠBou": 12540, "ĠWard": 12541, "ĠWire": 12542, "ĠFreed": 12543, "ĠRio": 12544, "rika": 12545, "Ġdece": 12546, "essor": 12547, "eway": 12548, "ĠNi": 12549, "ĠNurs": 12550, "ĠNPR": 12551, "Ġrally": 12552, "Ġexpend": 12553, "Ġexemption": 12554, "ĠEither": 12555, "ĠEdd": 12556, "oples": 12557, "usted": 12558, "eled": 12559, "Ġabroad": 12560, "Ġpled": 12561, "Ġjam": 12562, "agne": 12563, "Ġkills": 12564, "Ġneat": 12565, "Ġouter": 12566, "Ġoutbreak": 12567, "Ġcompost": 12568, "clock": 12569, "Ġdisclosure": 12570, "Ġnewest": 12571, "Ġspare": 12572, "neath": 12573, "Ġoverr": 12574, "Ġovert": 12575, "Ġoverlook": 12576, "Ġscared": 12577, "ĠHend": 12578, "Ġblond": 12579, "issa": 12580, "comed": 12581, "Ġconservation": 12582,
[...]
